#version: 0.2
h e</w>
i n
▁t he</w>
t i
e r
e n
e d</w>
a n
o n
a ▁
o r
o n</w>
▁o f</w>
a r
t ▁
e ▁
in g</w>
n d</w>
o u
e r</w>
o ▁
i ▁
e s
▁t o</w>
▁t h
e a
e s</w>
e c
i t
r o
i c
▁a nd</w>
o s
a l</w>
a ti
i s
i l
o r</w>
▁i n</w>
- @</w>
t h
o m
a l
e l
a t
a t</w>
@ -@</w>
u r
en t</w>
q u
a n</w>
▁i s</w>
t he</w>
a s</w>
t r
t s</w>
e n</w>
e m
p os
o t
c e</w>
o l
u s
v e</w>
t▁ he</w>
▁i n
a s
▁w h
a c
ati on</w>
l y</w>
i s</w>
i d
▁th at</w>
r e
n g</w>
i r
▁ e</w>
▁T he</w>
ot ;</w>
l e</w>
u c
i n</w>
t h</w>
i g
u l
r e</w>
u ▁
c h
▁f or</w>
pos ;
p ▁
a m
an d</w>
& a▁
▁o n</w>
ti on</w>
v er
e t
er e</w>
▁p ro
f f
s ▁
a g
qu ot;</w>
a y</w>
u n
r ▁
▁a s</w>
o f</w>
p l
it h</w>
▁i t</w>
i m
▁c on
▁b e</w>
t o</w>
er s</w>
t ed</w>
o o
▁r e
t er</w>
h ▁
&a▁ pos;
a▁ nd</w>
▁b y</w>
o c
r es
u t</w>
▁e x
o p
w ▁
il l</w>
▁s h
m ent</w>
o t</w>
▁c om
u d
o u</w>
s t
i on</w>
▁w ith</w>
s e</w>
▁h a
▁s t
▁w as</w>
o w
p or
a b
r i
it y</w>
e t</w>
c ▁
a d
on g</w>
e v
▁a re</w>
ou n
a p
p er
on s</w>
f ▁
r ea
l ▁
i c</w>
e▁ n
d ▁
s t</w>
t er
i▁ ng</w>
in ▁
at e</w>
al l</w>
i ti
▁w ill</w>
▁a l
u m
l d</w>
i t</w>
i d</w>
on g
a k
d uc
▁K or
▁a t</w>
& quot;</w>
ro m</w>
▁c h
a y
▁y ou</w>
f or
i v
e x
e e</w>
▁th e
ic e</w>
t y</w>
u b
m ▁
▁T h
c i
e a</w>
an ▁
▁, ,</w>
o w</w>
e d
ti ▁
e ar
c on
c h</w>
▁ s</w>
▁b e
&a▁pos; s</w>
i z
an g
b ▁
th ▁
▁ha ve</w>
p ro
ic h</w>
t ur
n ▁
y e
ea r</w>
▁f rom</w>
o ver
d s</w>
r ou
e p
s i
en ts</w>
p ec
i es</w>
e g
en ▁
▁r es
▁u n
i m</w>
▁h as</w>
on al</w>
u e</w>
c om
th er</w>
a r</w>
▁p l
▁a n</w>
▁a c
c l
d ing</w>
ar y</w>
en t
ig h
i r</w>
a t▁
e▁ r
▁I n</w>
▁p ar
a in
▁C h
▁n ot</w>
es s</w>
▁I t</w>
▁wh ich</w>
an ce</w>
t ing</w>
an t</w>
▁th is</w>
▁t r
& a
l l</w>
o▁ n</w>
t e</w>
▁p er
▁e n
▁w or
s o</w>
g ▁
o v
d er</w>
ou t</w>
▁o n
es t</w>
a id</w>
over n
th ▁e</w>
& ▁
e▁n t</w>
▁o r</w>
g h</w>
i al</w>
at ed</w>
g e</w>
▁ ed</w>
a▁ r
▁wh o</w>
u p
▁c an</w>
ff ic
ag e</w>
▁a n
▁com p
ou ld</w>
▁( (</w>
w i▁
o▁ n
uc h</w>
▁d is
or e</w>
▁a b
w h
ati ▁
ea n</w>
▁ u
e w</w>
es s
il l
im e</w>
s s
ar e</w>
i f
▁b ut</w>
▁sh all</w>
▁& quot;</w>
▁Kor ea</w>
o▁ r
e l</w>
em ent</w>
f ter</w>
a▁ n
e▁ d</w>
on ▁
ou r
an y</w>
s h
ti c
▁r ec
a us
in is
r e▁
ea d</w>
▁a d
o g
▁& qu
ol l
em b
i▁ n
o t▁
t en
▁a p
▁ t</w>
ye ong
i b
u ng</w>
in ce</w>
a in</w>
as t</w>
k e</w>
▁i m
ea s
i t▁
u t
o▁ t
ou r</w>
an g</w>
ou s</w>
en ce</w>
e y</w>
in g
tr y</w>
e m</w>
ak e</w>
▁th ere</w>
▁w ere</w>
ou ▁
▁f ir
▁h e</w>
op le</w>
▁W h
er v
am e</w>
u n</w>
o▁t ;</w>
f▁ or</w>
ar ▁
m e</w>
o d
▁t ime</w>
k s</w>
▁b ec
e ople</w>
es ti
▁e v
▁be en</w>
- ▁
f or</w>
▁c l
▁y ear</w>
0 0</w>
& qu
om e</w>
-▁ @</w>
▁a g
por t</w>
p r
a m</w>
el y</w>
ec t</w>
in e</w>
in▁ g</w>
cl ud
p▁ os
▁f or
; s</w>
g i</w>
k ing</w>
ati▁ on</w>
oo d</w>
e f
▁i f</w>
▁I n
tur e</w>
or ▁
▁o r
ot▁ ;</w>
aus e</w>
ub l
pos ▁
an d
a f
s tr
@ -▁@</w>
▁s aid</w>
▁al so</w>
▁Kor ean</w>
a d</w>
th▁ at</w>
al ly</w>
a ir
s ed</w>
t▁ o</w>
▁r el
iti es</w>
igh t</w>
al l
for m
ro v
▁s o</w>
b e</w>
▁s uch</w>
a v
▁wh en</w>
ar d</w>
ati ons</w>
ati onal</w>
q ▁u
▁p r
▁the y</w>
id e</w>
▁d o</w>
o▁ f</w>
▁the ir</w>
▁a fter</w>
o m</w>
on e</w>
▁p eople</w>
e▁ s</w>
w▁ h
▁m ore</w>
e en</w>
a e</w>
i ve</w>
p ar
res id
o b
or s</w>
▁con t
▁K im</w>
om m
e e
en c
an▁ d</w>
@ ▁
u m</w>
ad e</w>
u l</w>
an c
e▁ c
ur e</w>
▁a t
▁ ot;</w>
b y</w>
e▁ r</w>
@▁ -@</w>
o▁ s
c or
ti v
t▁ h
▁th an</w>
o on</w>
y ▁
an s</w>
▁ab out</w>
o o</w>
il e</w>
▁p re
a ce</w>
o in
t u
i ke</w>
pos ;</w>
ea l
▁S e
er ▁
os t</w>
ab le</w>
▁d i
▁G yeong
u s</w>
i l</w>
▁2 0
▁m e
▁in v
us t</w>
it t
ar k
▁& a
▁fir st</w>
el l</w>
d i
e a▁
▁h ead</w>
ubl ic</w>
C h
overn ment</w>
▁ es</w>
w o</w>
▁f ac
▁com m
▁pro v
▁s tr
▁w e</w>
p en
ar t
an ag
▁Th is</w>
pos; s</w>
▁o ut</w>
t▁ er</w>
▁h is</w>
re e</w>
d ed</w>
es e</w>
i▁ n</w>
ver s
e w
it h
n ing</w>
▁a r
al ▁
p res
s ti
▁m ay</w>
p ol
ay s</w>
▁s ec
ev el
▁in clud
▁u p</w>
▁A c
▁m y</w>
an s
▁re g
al s</w>
▁con s
wi▁ th</w>
l is
▁s up
▁h el
▁in ter
▁s ub
d us
ci al</w>
▁on e</w>
▁m on
m e▁nt</w>
t▁ ed</w>
i ous</w>
ig n
▁p ol
s u
es t
ti▁ on</w>
d er
d is
▁bec ause</w>
c rea
i p
g h
s ec
ig h</w>
▁e m
▁pro duc
or y</w>
▁Gyeong gi</w>
rou gh</w>
▁s p
K or
oo l</w>
us in
&a p▁os
g r
▁o ffic
▁I f</w>
▁c oun
ur r
▁s ch
t or</w>
it e</w>
or th</w>
ati ve</w>
il ▁
e on</w>
ou l</w>
o d</w>
b l
as e</w>
b er</w>
o p</w>
a▁ s</w>
▁i ts</w>
i a</w>
▁P ar
▁l oc
ic al</w>
a ve</w>
ti ons</w>
oo k</w>
▁wh ere</w>
a w
w as</w>
▁al l</w>
ti ci
▁A s</w>
ow n</w>
a il
▁ h
S e
▁ac c
▁m e</w>
&▁ a
▁per s
ill ion</w>
o y
s ion</w>
s ing</w>
os e</w>
l ec
q▁u ot;</w>
ic ▁
▁ha d</w>
▁o ther</w>
▁f in
▁g overnment</w>
ol d</w>
▁G u</w>
w▁ as</w>
s u▁
▁q u
d r
m s</w>
▁st ud
▁@ -@</w>
ear s</w>
k ed</w>
I n
et w
pro v
e ed</w>
▁d ue</w>
y st
ea se</w>
por t
f r▁
K ▁
▁a m
a▁ t</w>
▁p os
▁d ec
at ing</w>
en d</w>
a▁ l
▁y our</w>
▁o p
it s</w>
e b
r ec
an n
p r▁
▁W e</w>
u r</w>
ir ec
▁on ly</w>
e▁r s</w>
▁w on</w>
, 0
ti ve</w>
s es</w>
h ed</w>
▁w ith
▁l ea
g an
▁m emb
▁Th ere</w>
f er
▁p ublic</w>
ri v
o▁ r</w>
a▁ re</w>
j u</w>
▁o per
s i▁
in c
▁S t
ing s</w>
▁includ ing</w>
▁t wo</w>
▁p ur
ac k</w>
ac h</w>
▁th rough</w>
en ti
th at</w>
ou gh</w>
s t▁
h e▁
si b
a i▁
w▁h o</w>
ul ar</w>
▁U n
ig n</w>
i ed</w>
ul t</w>
el l
f ir
i tion</w>
▁p res
▁l ast</w>
r y</w>
▁N orth</w>
ar ge</w>
tici p
▁d ay</w>
s pec
▁m at
▁un der</w>
e h
ec h
▁in crea
evel op
f l
gan iz
e ti
in k</w>
enc y</w>
▁l ike</w>
itt ee</w>
▁s m
S .</w>
j ect</w>
resid ent</w>
e▁ re</w>
▁P rov
r o▁
i▁ ty</w>
p h
S ▁
▁t ea
s el
▁A r
an ies</w>
▁f l
i p</w>
m inis
ark et</w>
et y</w>
▁k n
wi▁ ll</w>
w h▁
▁w ould</w>
▁n um
v er</w>
▁M inis
2 0
sti tu
t ly</w>
c er
il ity</w>
s s</w>
▁d r
en▁ t</w>
ou th</w>
cor ding</w>
at es</w>
v is
▁d es
w ith</w>
▁n o</w>
esti g
a▁ n</w>
t ers</w>
o▁ ng</w>
r el
ff er
en ter</w>
▁n ew</w>
&a▁ pos▁
▁m any</w>
i▁ c
ter n
▁20 1
il y</w>
ol og
▁b u
ex t</w>
v ▁
ent ly</w>
it ed</w>
▁&qu o▁t;</w>
fr▁ om</w>
id ed</w>
et ro
u g
i▁ ch</w>
en d
v i
▁the m</w>
▁h igh</w>
tr ▁
is t
ff ice</w>
i▁ s</w>
▁s pec
e ther</w>
▁Ch in
▁m anag
com p
▁Wh en</w>
▁s erv
en er
i vers
▁ex pec
▁m ed
▁num ber</w>
em s</w>
b e▁
d o</w>
ow ing</w>
ur ing</w>
a▁ c
▁d el
▁sh ould</w>
p on
▁ap p
ti▁ ng</w>
ro w
un ▁
w or
k ▁
yst em</w>
usin ess</w>
a▁ ll</w>
ab lis
▁s c
▁rec e
o▁ m
a▁ te</w>
ang e</w>
▁s e
v en
is e</w>
ic ation</w>
ap o▁s
▁C omm
▁m ade</w>
ec ▁
u tion</w>
▁v is
if e</w>
iz ed</w>
a▁ l</w>
ar g
str uc
u p</w>
e o
duc ation</w>
j ▁
▁loc al</w>
,0 00</w>
. S.</w>
for e</w>
o▁n s</w>
etro pol
ec ess
ou nd</w>
f ac
w on</w>
us t
et ing</w>
ic es</w>
▁&qu ▁ot;</w>
ech n
d ay</w>
▁g r
▁comp anies</w>
▁L ee</w>
▁an n
l l
m an</w>
m er</w>
▁y ears</w>
p le</w>
▁in to</w>
▁com pl
▁Se oul</w>
&ap▁os ;
a w</w>
i ons</w>
▁hel d</w>
rou nd</w>
ou s
con om
ev er</w>
ac t</w>
i▁ al</w>
ti f
▁o ver</w>
as s
▁c ar
▁H e</w>
d in
l oc
t▁ s</w>
▁u se</w>
▁p h
▁comp any</w>
ul tur
s c
▁e st
ow er</w>
etw een</w>
t ro
r ap
at er</w>
▁c r
s p
an ts</w>
minis tr
▁T r
on d</w>
▁pro c
&a▁pos; ▁s</w>
re a</w>
oc i
▁t ake</w>
c▁ h
&▁ qu
▁v ar
▁re qu
▁r ea
▁wor k</w>
▁m ake</w>
▁b etween</w>
ti es</w>
▁ch il
▁d o
▁f oll
er y</w>
s id
ver y</w>
▁b as
o ve</w>
▁ n
at▁ ion</w>
is ▁
s ur
gh t</w>
▁N ational</w>
ud g
▁e ach</w>
em ▁
▁ex per
▁sup port</w>
y ing</w>
▁th ink</w>
▁sch ool</w>
▁st ar
er e
el ec
h a▁
▁ap pl
P rov
a u
c oun
▁memb ers</w>
& q▁uot;</w>
u al</w>
com m
er g
▁t er
▁in dus
▁P resident</w>
▁or der</w>
in v
▁w ant</w>
▁ev en</w>
&a▁pos; ▁t</w>
s a▁
▁m arket</w>
h▁ as</w>
ecess ary</w>
iz e</w>
▁par ticip
▁d ep
▁wh ile</w>
▁g o</w>
i e
j ec
tic le</w>
es ▁
▁d et
on▁ al</w>
▁b usiness</w>
i▁ on</w>
el ▁
&▁ quot;</w>
▁s ince</w>
▁Ac cording</w>
rou p</w>
ou ng</w>
n ot</w>
▁Y ou</w>
e ong</w>
o▁ ut</w>
▁inv estig
▁at ten
in d</w>
v ir
il ities</w>
ch ▁
▁s u
i▁ ce</w>
▁b r
f r
pl ▁
ol ▁
▁pro m
▁U .S.</w>
m e
&a pos;s</w>
h as</w>
ur es</w>
l i
▁&a pos;s</w>
▁tr ans
▁n ecessary</w>
w ill</w>
▁d on</w>
▁th ree</w>
en g
▁g et</w>
m a▁
c ed</w>
i als</w>
▁be ing</w>
▁d evelop
wh i▁ch</w>
▁g o
▁f am
▁J ap
&▁a pos;</w>
t▁ h</w>
at▁ ed</w>
▁Prov ince</w>
ay ing</w>
e▁ n</w>
▁f e
&qu o▁t;</w>
o l</w>
▁s ystem</w>
▁e ar
▁res id
▁c oll
▁P l
▁est ablis
▁w ell</w>
1 ▁
▁Par k</w>
d e</w>
▁g ood</w>
u▁ r
is t</w>
▁s ome</w>
▁c rea
t a▁
s e▁
ap p
▁D o</w>
pl oy
&qu ▁ot;</w>
▁in d
▁A l
i ence</w>
p re
b u
▁S h
▁e t
u ation</w>
ou se</w>
am p
t a
o k</w>
y ear</w>
▁per form
ul ▁
▁pers on</w>
▁m a
e o</w>
▁expec ted</w>
re g
▁a ss
▁ al</w>
▁pl ace</w>
▁a m</w>
▁c ould</w>
i▁ es</w>
i▁ s
h er</w>
tr ic
eas on</w>
sib le</w>
▁m ov
▁s ur
▁Minis try</w>
art ment</w>
▁&qu ot▁;</w>
w ay</w>
▁ er</w>
er m
▁c as
▁pol ice</w>
▁an y</w>
e ed
ak ing</w>
▁r em
▁p oin
▁b el
s he</w>
u▁ n
▁i ss
ati o▁n</w>
▁d irec
an▁ ce</w>
▁bu il
form ation</w>
d y</w>
▁n eed</w>
▁o ur</w>
al e</w>
▁E n
▁n ext</w>
dr en</w>
▁stud ents</w>
n am</w>
an cial</w>
p p
▁h ea
tr ies</w>
▁m ost</w>
oun t</w>
▁1 0</w>
b▁ ut</w>
▁var ious</w>
i onal</w>
Kor e▁
e ts</w>
▁c ase</w>
▁O n</w>
▁manag ement</w>
▁ac tiv
m o▁
▁e conom
ain ed</w>
ab ▁
on▁ g</w>
▁or ganiz
o ther</w>
y e▁
an k</w>
▁) )</w>
un g
i▁ t</w>
▁d uring</w>
ti me</w>
▁r a
en s</w>
d iti
; t</w>
▁g u</w>
▁ex c
b e
▁s ame</w>
▁t a
▁c er
▁g u
▁offic ial</w>
t e▁
▁re por
pr o▁
▁pro bl
G yeong
▁c or
▁be fore</w>
vir on
our t</w>
h o▁
▁Ar ticle</w>
▁tea m</w>
▁u sed</w>
om ▁
p▁ l
or t</w>
emb er</w>
iv ing</w>
tr ib
p o▁s
▁Chin a</w>
el d</w>
n ed</w>
▁b l
n o▁
th ing</w>
▁F or
▁m in
▁ann oun
r u
overn or</w>
▁wh at</w>
oo per
s on</w>
sh ip</w>
▁d ays</w>
▁a rea</w>
▁h ow</w>
o or</w>
P ▁
ff ▁
d▁ er</w>
m ents</w>
▁A t</w>
i od</w>
en▁ ts</w>
ultur al</w>
▁S outh</w>
▁m illion</w>
▁cont in
h▁ is</w>
oc ial</w>
▁at t
air s</w>
▁e l
as s</w>
▁al l
olog y</w>
▁e ff
it al</w>
p s</w>
T he</w>
e ong
▁l ot</w>
&a▁pos; t</w>
▁w r
af t▁er</w>
ac ▁
p o▁r
l i▁
▁di ffer
r ed</w>
▁n ow</w>
l e▁
ti o▁n</w>
▁pro ject</w>
ic y</w>
f rom</w>
ch eon</w>
ain ing</w>
&qu ot▁;</w>
op e</w>
th is</w>
▁e lec
▁a s
▁C on
l es</w>
h is</w>
un d
C ▁
▁s l
g u</w>
ul ture</w>
i um</w>
A ▁
K im</w>
▁me eting</w>
us ▁
▁1 9
e x</w>
ib er
▁di ffic
si ve</w>
o▁ ul</w>
▁s it
ivers ity</w>
o o▁
w n</w>
t ain</w>
f f</w>
th er
a▁r y</w>
o k
m is
s aid</w>
y p
▁ex pl
o b</w>
in▁ ce</w>
▁c urr
m e▁
▁g ener
ic s</w>
M ▁
▁a ff
▁par tic
ear ch</w>
▁v i
f ul</w>
&a▁pos▁ ;s</w>
▁con cer
▁h er</w>
iv ed</w>
▁t ri
it an</w>
m on
▁l ong</w>
▁mon th</w>
▁wor ld</w>
&a pos;</w>
t ors</w>
wh o</w>
▁A m
▁res pon
▁C ity</w>
▁P ro
c .</w>
y ou</w>
▁“ “</w>
▁pl an</w>
th e▁
▁f i
K or▁
od ay</w>
u▁ re</w>
com e</w>
▁con duc
ag rap
o w▁
▁kn ow</w>
c ri
▁with out</w>
▁rel ated</w>
&a▁ po▁s
▁A ss
l ed</w>
an t
is m</w>
is h
▁s al
sel f</w>
n▁ ot</w>
o ti
m y</w>
em e▁nt</w>
▁d em
l a▁
ev ▁
c o▁
rou ▁
ow ed</w>
id ent</w>
m ed</w>
ha▁ ve</w>
▁in formation</w>
&a▁pos; m</w>
is h</w>
m ed
anc es</w>
r i▁
▁a round</w>
▁produc ts</w>
e t▁
▁w ee
▁ex p
w ang
en tr
▁f u
▁e ducation</w>
▁sm all</w>
▁f r
en t▁
▁with in</w>
▁foll owing</w>
▁Pl ease</w>
s▁ t
▁H y
ot al</w>
▁fac t</w>
oc k</w>
▁Comm ittee</w>
f o▁r</w>
c c
in d
s an</w>
▁partic ular</w>
is ion</w>
d u
y m
▁serv ice</w>
ic k
2 ▁
it ing</w>
▁c ity</w>
ac k
▁sec ond</w>
om en</w>
▁b o
a▁ tion</w>
ab or</w>
s h▁
ow s</w>
t ment</w>
▁l arge</w>
▁r ight</w>
th ough</w>
al ity</w>
U n
▁ev ent</w>
il it
en se</w>
K▁ or
▁g row
▁s ee</w>
a ir</w>
▁j ust</w>
▁o ut
h ave</w>
▁re f
Se o▁ul</w>
a e
ent al</w>
L ▁
▁o ffice</w>
di tion</w>
ci l</w>
ati on
▁d id</w>
s erv
▁c o
l▁ y</w>
al y
▁resid ents</w>
f i▁
ul t
af ety</w>
▁b ro
▁f ood</w>
k ers</w>
▁ch ec
▁O r
s▁ h
overn me▁nt</w>
ust om
m it</w>
struc tion</w>
▁l ife</w>
er ing</w>
for m</w>
s up
Kor▁ ea</w>
d e▁
c us
▁indus try</w>
all ed</w>
ro w</w>
▁m uch</w>
▁pr ice</w>
por ts</w>
▁pre v
▁m eas
e ign</w>
eal th</w>
h ere
▁Ac t</w>
ai▁ d</w>
& apo▁s
um p</w>
t▁h at</w>
ur ▁
▁d e
▁pro f
iti z
ag es</w>
Kor ea</w>
v en</w>
s ide</w>
i an</w>
ea s</w>
b ut</w>
as ▁
▁spec ial</w>
ea l</w>
▁h igh
y ung</w>
▁coun try</w>
i k
▁M oon</w>
s l
Kore▁ an</w>
▁fac ilities</w>
es ted</w>
▁cons id
re t
▁cas es</w>
▁be g
▁increa se</w>
a k</w>
▁s ol
e▁ x
b ▁e</w>
▁t echn
▁s ti
at t
l ine</w>
▁ p
▁t otal</w>
ar ds</w>
ati on▁al</w>
im es</w>
iz ation</w>
▁per iod</w>
at ely</w>
▁A n
a p▁
▁e nd</w>
v ing</w>
▁ter m</w>
▁m us
ee p</w>
i or</w>
ati c</w>
os p
v es</w>
▁w ay</w>
s ung</w>
h y
g u
z e</w>
▁am ong</w>
o▁ l
▁f il
▁chil dren</w>
i e</w>
▁ma j
▁f ri
▁Th at</w>
b een</w>
e▁ ss</w>
▁f un
uc c
o i</w>
un ity</w>
n er</w>
th▁ er</w>
▁ th</w>
▁p op
▁wh ether</w>
th s</w>
tr ac
a u▁
ot h</w>
an u
t▁ r
▁in st
us e</w>
i g</w>
▁r ate</w>
ow ever</w>
▁re port</w>
▁v ery</w>
▁A fter</w>
oo m</w>
a▁ ge</w>
▁oper ation</w>
ain st</w>
at a</w>
ti l</w>
al f</w>
pos e</w>
here in
▁o b
m ak
▁ex pen
ec tion</w>
C omm
o p▁
ch ed</w>
u te</w>
pos▁ ;s</w>
in cial</w>
▁Par ty</w>
a▁ m
en▁ ce</w>
air man</w>
▁un der
or k</w>
b le</w>
t▁ y</w>
el f
▁f ound</w>
pl em
▁r eal
▁th ▁e</w>
ac c
▁g l
us an</w>
▁G overnor</w>
b u▁
▁announ ced</w>
▁b illion</w>
▁h ear
c r
d ic
▁g rea
u th
oc r
agrap h</w>
ar t</w>
0 ,000</w>
ul ts</w>
▁des ign
▁th ose</w>
an ese</w>
ak es</w>
G ▁
R W</w>
ot e</w>
a z
▁ad v
M etropol
il▁ l</w>
d i▁ng</w>
▁produc t</w>
iti ▁
▁pl ay
u▁ c
jec ts</w>
pres ent
▁o cc
d en</w>
T ▁
▁J e
it▁ an</w>
▁G ang
▁Wh at</w>
▁g roup</w>
y o▁
ffic i
og ether</w>
▁ch ang
▁th ese</w>
d i▁
▁investig ation</w>
con ▁
ep t</w>
ac h
ar m
is ed</w>
a ff
▁e as
▁proc ess</w>
ew s</w>
p ri
ac hed</w>
l o▁
n▁ d</w>
u ty</w>
ev el</w>
en s
om e
ut es</w>
w ard</w>
▁E x
ol e</w>
. ▁
▁et c.</w>
r em
a▁ t
in es</w>
w▁ on</w>
▁develop ment</w>
th a▁t</w>
▁in tro
▁re v
▁for mer</w>
▁inv est
▁w ater</w>
od y</w>
▁S am
▁in stitu
▁r o
o y</w>
c ent</w>
t▁ ion</w>
▁t al
c o▁n
eas ed</w>
ar k</w>
a i</w>
it▁ h</w>
l▁ ed</w>
h ib
▁u s</w>
▁s aying</w>
an ding</w>
▁c enter</w>
▁r et
w▁ ill</w>
▁e very</w>
igh ts</w>
▁s us
▁d oc
▁fin ancial</w>
▁Al though</w>
▁cont ro
▁perform ance</w>
▁o pen
i▁ d
o▁n e</w>
er ▁s</w>
▁s ay</w>
c es</w>
i▁ l
p ly</w>
N ▁
▁b udg
▁H owever</w>
i ev
in ation</w>
▁mat ters</w>
ie f</w>
▁s ign
▁d ef
s ch
▁i d
▁in ten
K▁ im</w>
tic s</w>
b▁ er</w>
ob al</w>
▁ex am
s ai▁d</w>
in ter
▁am ount</w>
▁im port
▁r eason</w>
be▁ en</w>
he▁ ad</w>
s ub
▁U S</w>
en ds</w>
s um
▁com e</w>
d ers</w>
▁par ty</w>
▁pur su
din ance</w>
e▁c t</w>
▁h im</w>
m▁ an</w>
eg al</w>
▁diffic ult</w>
enti al</w>
▁repor ted</w>
v ed</w>
ur ity</w>
ar ac
D ▁
▁u s
i ver
▁s k
▁ch arge</w>
▁ ot▁;</w>
in ed</w>
a▁n t</w>
u ed</w>
▁ad ministr
m en▁t</w>
▁i t
d▁ ed</w>
▁ch ange</w>
esti v
ul l</w>
ou▁ ld</w>
u▁ l
u es</w>
w e▁
ef t</w>
an ds</w>
▁s ocial</w>
ec ted</w>
▁bec ome</w>
p ing</w>
▁pro t
▁par t</w>
▁st at
▁en ter
emb ly</w>
riv ate</w>
n s</w>
ec u
et ter</w>
▁n o
if ic
s e
in al</w>
etropol itan</w>
▁probl em</w>
▁fir e</w>
▁& q▁uot;</w>
r d</w>
m .</w>
m anag
er ed</w>
ea t</w>
▁a ud
▁en tr
▁ag re
▁con struction</w>
ou ght</w>
at ur
on t</w>
▁t rea
f t
▁h ome</w>
▁c ustom
& q▁u
▁pro sec
c▁ an</w>
▁Th ey</w>
ev ant</w>
▁ag ain</w>
▁fam ily</w>
▁C enter</w>
sa▁ id</w>
pl o
▁wor king</w>
n ow</w>
▁pro gr
▁ad dition</w>
b▁ y</w>
b e▁c
▁o ver
▁offic ials</w>
ir e</w>
▁hel p</w>
▁b ack</w>
esti c</w>
pos; ▁s</w>
▁s elec
tr ial</w>
s o▁
▁l o
▁M y</w>
▁ ts</w>
▁h ere</w>
m▁ ent</w>
▁J ae</w>
▁pos sible</w>
oun d
rea s</w>
c an</w>
H ▁
▁prov ide</w>
▁h um
for m▁
ti c</w>
▁F or</w>
▁sh ar
p ed</w>
▁differ ent</w>
▁comp eti
fer red</w>
s m
S t
▁coun tries</w>
l s</w>
er ▁e</w>
du ce</w>
our s</w>
20 1
▁sit uation</w>
▁con fir
▁go ing</w>
ov ▁
oin t</w>
▁2 0</w>
u▁ n</w>
▁wh y</w>
▁ag ainst</w>
f▁ f
▁a uth
c as
▁sti ll</w>
▁par agraph</w>
ug g
ou▁ n
▁m od
▁th ▁
Metropol it▁an</w>
▁u sing</w>
▁S ince</w>
▁inter n
ir ed</w>
d ep
eh ic
a▁ y</w>
▁s et</w>
c a▁
▁Jap an</w>
▁d am
▁d om
▁sal es</w>
ain s</w>
▁n ational</w>
▁p as
f in
en ted</w>
▁compl et
r▁ ed</w>
▁m ain
uc l
w o▁r
▁s im
at ure</w>
▁M ar
s▁ ed</w>
p▁ le</w>
a▁ ng</w>
▁rece ived</w>
n ess</w>
▁w at
▁inter est</w>
d le</w>
d ec
A ss
is ts</w>
tric t</w>
B ▁
▁s he</w>
▁Chin ese</w>
ul ation</w>
oun ▁
iv es</w>
▁Tr ump</w>
ig ▁h
si a</w>
i o▁n</w>
k i▁ng</w>
▁B usan</w>
vi ew</w>
id ▁
▁d own</w>
duc ed</w>
i▁ ts</w>
▁maj or</w>
▁mon ey</w>
▁en viron
▁th en</w>
▁p ower</w>
i o</w>
▁t oday</w>
ir ▁
air per
ea m</w>
▁d ata</w>
▁c aus
w e▁re</w>
w ere</w>
ea d
▁c ap
▁J ung</w>
▁rec or
o ol
on ed</w>
em ocr
t o▁
ch ing</w>
▁an aly
▁C oun
▁in c
pos ed</w>
iv id
ri ed</w>
t▁ or</w>
▁P ol
th▁ is</w>
o tion</w>
is sion</w>
ye ong</w>
▁g ive</w>
▁m ain</w>
▁3 0</w>
▁a reas</w>
iv ▁
tr act</w>
po▁r t</w>
a p</w>
tr uc
c t</w>
▁Minis ter</w>
▁rel evant</w>
▁import ant</w>
▁meas ures</w>
▁dep artment</w>
lis h</w>
▁e qu
▁memb er</w>
▁f our</w>
▁bas ed</w>
▁pre par
▁pursu ant</w>
on y</w>
▁Jap anese</w>
▁ n</w>
▁econom ic</w>
▁In tern
▁s er
i x</w>
sib ility</w>
i▁ t
ov er</w>
r a▁
▁p ay</w>
▁r oom</w>
on ▁s</w>
▁c ame</w>
am ▁
▁for eign</w>
rea dy</w>
o▁ us</w>
▁un til</w>
en ing</w>
▁Sam sung</w>
e▁ st</w>
▁p rivate</w>
t e▁r
▁res ult</w>
▁Un iversity</w>
ilit ary</w>
elf are</w>
c o▁m
b ec
▁em ploy
▁p ay
ur n</w>
ar s</w>
u nd</w>
estiv al</w>
▁dec ided</w>
▁fu ture</w>
▁l ear
su▁ ch</w>
ti ce</w>
ex p
▁G wang
ti▁ me</w>
▁w in
▁l oo
▁att ached</w>
▁per cent</w>
h i▁
▁t ogether</w>
▁t imes</w>
▁h ope</w>
▁f ive</w>
C h▁
▁v al
th▁ ey</w>
a un
res s</w>
▁increa sed</w>
re a▁
am es</w>
▁l im
itiz ens</w>
▁w omen</w>
▁Wh ere</w>
▁h ol
▁b est</w>
J ▁
ev en</w>
a il</w>
in clud
h av
f o▁r
▁chec k</w>
▁med ia</w>
G overnme▁nt</w>
▁ear ly</w>
wh▁ en</w>
▁ab le</w>
▁Or dinance</w>
con t
e ir</w>
E n
it▁ y</w>
is ing</w>
re d
el s</w>
▁A n</w>
▁t oo</w>
▁res ults</w>
f o▁
▁O n
▁w ar
▁s um
▁budg et</w>
o s</w>
ep ar
▁n eg
▁n eed
as ter</w>
n o</w>
v ▁e</w>
▁t em
ver y
▁im prov
p o▁
▁ st</w>
m in
▁in spec
pro duc
m it
▁atten tion</w>
n▁ g</w>
▁activ ities</w>
&▁qu o▁t;</w>
▁En g
▁comm ittee</w>
n ew</w>
▁pur pose</w>
c al</w>
at eg
y▁ ou</w>
tur es</w>
es ts</w>
▁exper ience</w>
▁do es</w>
▁w ea
d es
0 th</w>
p a▁
▁vis it</w>
al▁ so</w>
▁s ome
p e</w>
▁l aw
o ffic
un ic
▁ta x</w>
a fter</w>
is tr
o h
▁pl ans</w>
▁sur v
ir d</w>
▁m ust</w>
▁h alf</w>
▁gener al</w>
▁c ulture</w>
▁b ur
g r▁
▁p ic
ay or</w>
pos ition</w>
ub l▁
a in▁
▁l eft</w>
▁op in
▁t ook</w>
ic▁ h</w>
er ation</w>
r ic
n e▁
▁l evel</w>
id n</w>
A r
or ity</w>
in dus
w il▁l</w>
s▁ o</w>
g s</w>
▁rea l</w>
u le</w>
▁s ucc
b as
▁p aid</w>
re qu
▁tr ad
th ers</w>
iti ▁es</w>
. m.</w>
▁p ast</w>
▁g ame</w>
i▁n e</w>
or ganiz
▁grea t</w>
ex ▁
▁w ent</w>
▁&a pos;</w>
e e▁
the▁ ir</w>
▁c ooper
id dle</w>
▁r ul
l▁ d</w>
▁F in
▁c iv
il i
w ays</w>
w a▁s</w>
1 9
▁l ow</w>
▁y oung</w>
t▁ ry</w>
▁s afety</w>
▁c ol
y e</w>
▁wee k</w>
L ee</w>
y s</w>
ye es</w>
el f</w>
▁cons um
th▁ an</w>
▁E ducation</w>
and id
▁j ob</w>
▁en j
▁u r
t or
▁s ite</w>
▁m ar
▁S up
a▁n y</w>
▁st and
i▁ g
l ike</w>
i al
ib le</w>
yo▁ u</w>
oc ▁
▁E ven</w>
▁ex pres
▁K RW</w>
E O</w>
▁prov ince</w>
or▁ th</w>
▁H ow</w>
is si
▁fin d</w>
▁h ard</w>
C ▁h
▁s end</w>
▁dom estic</w>
ann ot</w>
▁st or
no▁ t</w>
▁ph ot
▁mat er
▁S ec
▁expen ses</w>
▁c ar</w>
per ▁
▁o ff</w>
d r▁
ir st</w>
p▁os ;s</w>
res ▁
▁h ouse</w>
on om
d irec
▁vi ol
m ore</w>
us ed</w>
ti s
e duc
▁pl ease</w>
ar ed</w>
h▁ er</w>
▁t our
a th
sh a▁ll</w>
▁S erv
▁iss ue</w>
▁c alled</w>
▁buil ding</w>
▁requ est</w>
e▁ m
ool s</w>
▁A d
▁fe el</w>
e et</w>
is ting</w>
ad ▁
ear ▁
b r
▁N ew</w>
fir ▁st</w>
ar ▁e</w>
at ten
a▁ r</w>
▁l abor</w>
▁v ehic
▁v id
s y
un▁ g</w>
iz ▁ed</w>
si an</w>
▁ch arac
ac es</w>
▁re present
▁b rea
K o▁
w e</w>
p re▁
▁ev al
u▁ ng</w>
▁pol icy</w>
at or</w>
g o</w>
in a</w>
a ther</w>
▁techn ology</w>
h ead</w>
ab▁ le</w>
id es</w>
▁det erm
▁m aking</w>
▁h ou
▁pres cri
▁f oc
h a▁s</w>
▁n ame</w>
ar ding</w>
ati o▁ns</w>
ubl▁ ic</w>
▁on ce</w>
l ea
ti c▁
▁h ours</w>
tr on
▁pur ch
t e▁d</w>
en ter
▁wor kers</w>
z ed</w>
f am
y u</w>
eo p▁le</w>
d en
as te</w>
▁20 0
0 s</w>
em ents</w>
b ed</w>
▁sh ow</w>
ie ve</w>
▁W ith</w>
2 0</w>
▁s ing
▁sub sid
et t
ul ly</w>
or m
▁o w
ir c
d ong</w>
▁aff airs</w>
▁b ea
▁re p
l ▁e</w>
▁D a
l ing</w>
▁prosec ution</w>
h ▁e</w>
▁pro jects</w>
P ro
y o</w>
op er
▁W or
▁c ou
rou▁ gh</w>
▁em erg
▁C om
▁se ems</w>
▁m or
▁p ut</w>
▁v ol
f ri
▁h ist
u k</w>
plo yees</w>
▁app ly</w>
▁l ik
▁a ut
as h
i e▁s</w>
▁rece ive</w>
ye▁ ar</w>
ch ool</w>
▁curr ent</w>
in s
sur ance</w>
oci ation</w>
s▁ t</w>
pos▁ ;</w>
st ud
t wo</w>
i f</w>
▁c os
▁prov incial</w>
▁ex ch
5 th</w>
▁dis cus
d o▁
ag ▁
▁al ready</w>
ous ly</w>
s▁ on</w>
re en</w>
▁su per
s ure</w>
es si
O r
▁pay ment</w>
wh▁ o</w>
v i▁
at▁ e</w>
▁rel eased</w>
▁appl ication</w>
▁expl ained</w>
ess es</w>
▁t yp
▁con c
at▁ ional</w>
▁s w
▁fr ont</w>
▁R es
tic al</w>
1 0</w>
enc es</w>
▁M etropolitan</w>
l d
ar▁ ty</w>
ac tiv
ti m
e▁ ly</w>
l▁ l</w>
▁c ri
▁l aw</w>
▁C ourt</w>
R ▁
iv en</w>
em ony</w>
erg y</w>
▁in t
oci ety</w>
p a▁r
oo ds</w>
i qu
for ▁
a▁n s</w>
ent ary</w>
a▁r d</w>
b o
▁l ook</w>
ro▁ m</w>
s w
▁conduc ted</w>
▁c ultural</w>
▁D ec
un e</w>
▁star t</w>
8 th</w>
p▁ ro
▁m ilitary</w>
▁res earch</w>
7 th</w>
ret ary</w>
▁pr ices</w>
re fer
C on
▁med ical</w>
l ess</w>
s p▁
og n
▁c annot</w>
h igh</w>
▁sch ed
t e
Se oul</w>
ig▁h t</w>
e▁ t</w>
ati▁ ve</w>
g er</w>
▁Ass embly</w>
▁g ot</w>
u ally</w>
ar i
all s</w>
▁invest ment</w>
m at
tif ic
▁o wn</w>
tu al</w>
▁b ody</w>
stitu te</w>
ous eh
▁& apo▁s
p ur
▁m an
▁pl an
▁im plem
▁re ferred</w>
e▁ l
mo▁ re</w>
au▁ se</w>
airper son</w>
4 th</w>
▁D is
▁mon ths</w>
o ff
▁c our
▁poin t</w>
▁O ffice</w>
um ▁
Prov in▁ce</w>
▁ac cording</w>
▁gl obal</w>
w ang</w>
▁d ate</w>
▁grow th</w>
▁h ealth</w>
▁se ver
es t▁
▁ha pp
a▁r s</w>
▁v ic
u b</w>
pro ve</w>
an ks</w>
▁f ree</w>
im ▁
n ov
▁mus ic</w>
ex pec
amp ;</w>
▁str ong</w>
l ast</w>
it t▁
wh ich</w>
3 ▁
▁a v
or row</w>
ati s
es s▁
▁u n</w>
▁pol iti
fr as
er c
▁p ri
▁S o</w>
&a▁pos▁ ;t</w>
y ang</w>
▁rec omm
g y</w>
al▁ l</w>
▁s en
c▁ ed</w>
com pl
▁me ans</w>
k er</w>
em or
▁Ch airman</w>
▁b oth</w>
▁me th
itt le</w>
▁Eng lish</w>
osp ital</w>
▁tr av
ul ar
ig h▁
▁cor por
tr ans
▁I s</w>
trib u
s ol
. 5</w>
al▁ ly</w>
▁et c</w>
▁d riv
i ally</w>
N ation▁al</w>
▁B ut</w>
med i
ta ur
g over
em p
▁agre ement</w>
▁f ull</w>
iv er</w>
▁l ess</w>
▁str eng
▁p er</w>
▁c ourt</w>
▁P r
a im
▁o ld</w>
▁G overnment</w>
▁c are</w>
es ter
▁Pol ice</w>
ou▁ r
en e</w>
p e▁
▁i ll
al so</w>
ay ▁
▁C an</w>
d▁ uc
N or▁th</w>
▁th ings</w>
▁H ong</w>
▁d iv
comp an
▁m is
▁under st
inc ▁e</w>
en ef
▁R ep
▁st ate</w>
am s</w>
▁S u
d▁ s</w>
▁c itizens</w>
▁Ch oi</w>
l o
3 0</w>
▁ex hib
p▁ er
▁l et</w>
1 st</w>
d▁ ue</w>
▁ta x
n i▁ng</w>
▁Th en</w>
b usin
anu fac
f i
r a
▁c ost</w>
▁wh ▁
▁cl os
▁econom y</w>
▁a f
▁Wh ile</w>
▁gr ad
ai▁ r
▁l ive</w>
▁h ar
▁serv ices</w>
p e▁r
d e
▁s ide</w>
refer r▁ed</w>
c ement</w>
ess ed</w>
ep t
d el
o▁r s</w>
ail s</w>
▁D ep
e on
▁l aun
is es</w>
▁s epar
ang u
▁op en</w>
er al</w>
c y</w>
5 0</w>
ti onal</w>
▁b ig</w>
p er</w>
▁l iving</w>
c l▁
d ance</w>
▁as ked</w>
▁t ak
o▁r y</w>
W e</w>
▁ag ency</w>
w it▁h</w>
duc tion</w>
▁M ay</w>
c t
&qu ▁ot▁;</w>
M inis
a▁l s</w>
▁Un ited</w>
om s</w>
j in</w>
▁pro per
▁m ark
ov ▁er</w>
Gyeong ▁
▁g overn
6 th</w>
20 ▁
i▁c t</w>
im um</w>
ic t</w>
bu▁ t</w>
ft en</w>
o ice</w>
▁t op</w>
▁d idn</w>
▁F r
t ain
▁hum an</w>
▁a ▁s</w>
u ro
pro f
▁em ployees</w>
▁direc tor</w>
i▁ le</w>
ti o▁ns</w>
▁environ ment</w>
▁In cheon</w>
ch er</w>
▁establis h</w>
▁selec ted</w>
▁b ook</w>
pr▁ o
m or
▁particip ate</w>
en t▁s</w>
▁establis hed</w>
n ers</w>
bu k</w>
ail ed</w>
on es</w>
▁me et</w>
u ly</w>
▁p ubl
&a▁pos; ▁
▁a w
▁star ted</w>
herein aft▁er</w>
▁vid eo</w>
▁l ove</w>
▁t est</w>
▁& ▁
▁H an
▁c anc
n el</w>
e▁ on</w>
d▁ o</w>
0 ▁
wor k</w>
re f
▁h and
P ar
▁kn own</w>
K▁or ean</w>
I t</w>
ym p
▁prov ided</w>
▁tr ade</w>
▁p en
▁b oo
m ark
er n
&▁qu ot▁;</w>
g▁ u</w>
ill age</w>
ab ility</w>
▁m an</w>
um ents</w>
&▁qu ▁ot;</w>
et ting</w>
▁del iber
at ory</w>
▁ad diti
▁produc tion</w>
m ing</w>
e▁ s
er ic
▁l ed</w>
▁D ong</w>
▁rec ently</w>
▁lik ely</w>
C om
▁S ome</w>
ur ch</w>
e ung</w>
F ▁
m o
▁pers ons</w>
▁app oin
la▁ st</w>
air m▁an</w>
ex per
▁establis h
e es</w>
ob s</w>
fras truc
▁mov ie</w>
▁fi eld</w>
ess or</w>
L▁ ee</w>
▁Coun cil</w>
en t▁er</w>
c▁ h</w>
▁1 5</w>
a▁ g
ob ile</w>
▁s oon</w>
p are</w>
▁chil d</w>
▁administr ative</w>
▁R eg
a▁ ce</w>
▁acc ident</w>
p ic
&a pos▁;s</w>
▁tr aining</w>
▁acc oun
ud ▁
ec ts</w>
o▁ re</w>
entr al</w>
▁h old</w>
▁cer emony</w>
▁a way</w>
ess ion</w>
▁bec ame</w>
w▁ ith</w>
ay ed</w>
g et</w>
▁con tract</w>
▁1 00</w>
iti onal</w>
u▁ s
▁crea te</w>
b o▁
▁In dus
eal ed</w>
▁pl ay</w>
▁Serv ice</w>
resid e▁nt</w>
▁s ent</w>
m ost</w>
i▁ ll
T r
▁ f</w>
▁an other</w>
ul ations</w>
▁M ayor</w>
▁Y es</w>
hav ▁e</w>
▁con diti
eg ▁
y n
▁prev ent</w>
▁confir med</w>
w an</w>
▁n ew
g o▁
; m</w>
&ap▁os ▁
▁e very
d▁ ay</w>
▁p resident</w>
▁dr am
ill s</w>
▁c ause</w>
re es</w>
al k</w>
▁poin ted</w>
e ff
e qu
▁progr am</w>
▁me an
▁pop ular</w>
in ess</w>
ag ed</w>
▁pr in
▁dem and</w>
ci es</w>
&apo▁s ;s</w>
ou ▁t</w>
▁sub ject</w>
re v
▁open ing</w>
c ar
a▁ b
pro c
in ten
▁f ine</w>
iz ing</w>
▁or ig
▁o ften</w>
Gyeong▁ gi</w>
is hed</w>
o▁ on</w>
em ed</w>
▁b etter</w>
em e</w>
e um</w>
all ing</w>
y our</w>
pri l</w>
▁beg an</w>
o▁ w
b an</w>
ther n</w>
fer ence</w>
▁fl oor</w>
c▁ on
ch es</w>
A ct</w>
▁Je ju</w>
in t
eg e</w>
d u▁c
▁w a
▁organiz ations</w>
▁competi tion</w>
▁stud y</w>
f▁ or
▁par ents</w>
ur i▁ng</w>
ent ation</w>
w or▁
bu il
t ory</w>
i et
▁t aking</w>
m emb
▁a ir
n▁ ed</w>
▁t ▁
▁J ong</w>
▁B r
▁dam age</w>
eo k</w>
ti l
he▁ ld</w>
▁l ate</w>
c o
▁probl ems</w>
ot ing</w>
om orrow</w>
mit ted</w>
▁S p
ti▁ ve</w>
h ad</w>
or por
th an</w>
h▁ ad</w>
par ticip
th r▁
ch ers</w>
▁mor ning</w>
con s
▁im prove</w>
▁pr ac
▁u p
▁pre dic
▁loc ated</w>
▁p ati
▁th ought</w>
▁sch ools</w>
▁st ock</w>
t u▁
an k
▁T o</w>
Kor ean</w>
E ▁
▁sp ace</w>
▁in come</w>
ic▁ al</w>
c▁ l
▁al ong</w>
s it
ill i▁on</w>
▁n ight</w>
w ▁e</w>
ill ed</w>
f oll
; ▁s</w>
▁ex ecu
f er</w>
rea d</w>
m eas
▁res taur
▁s elf</w>
▁t ur
oc al</w>
P a▁r
▁ind ivid
r .</w>
ic ies</w>
g ency</w>
ip ment</w>
g o
▁trea tment</w>
▁con ven
r is
ot el</w>
loc al</w>
▁th ird</w>
w ith
urr ed</w>
em b▁er</w>
▁cl ass</w>
o▁ p
s is</w>
mis sion</w>
ed ly</w>
▁al ways</w>
as ed</w>
ec ause</w>
ail y</w>
p ubl▁ic</w>
e o▁
inv estig
▁l ine</w>
rel at▁ed</w>
&a▁po▁s ;s</w>
▁p at
▁vis ited</w>
▁caus ed</w>
g est</w>
S h
▁E lec
▁Y oung</w>
▁pre pare</w>
if ication</w>
▁o vers
e p</w>
ati▁ ng</w>
▁min utes</w>
▁5 0</w>
n▁ ew</w>
&a pos;
▁contin ue</w>
▁K ang</w>
im in
▁comm unity</w>
anc ▁e</w>
▁D emocr
includ i▁ng</w>
▁bro ad
ic ▁e</w>
▁des ign</w>
h o</w>
▁pers on
iti▁ on</w>
i▁ m
▁Gwang ju</w>
e▁r y</w>
▁In stitute</w>
▁m iddle</w>
ex c
▁1 2</w>
l and</w>
c oll
as t
ld n</w>
v y</w>
th rou▁gh</w>
ch il
▁a ge</w>
▁v er
▁institu tions</w>
▁c ard</w>
ver age</w>
▁sh owed</w>
▁intern ational</w>
▁exper ts</w>
w o▁n</w>
G u</w>
G ang
▁chang ed</w>
c ooper
▁l arg
ro ss</w>
wh e▁re</w>
d evel
▁qu ality</w>
▁inspec tion</w>
▁additi onal</w>
▁a ir</w>
d et
a▁n ce</w>
m an
▁res ol
t echn
▁n atur
▁1 1</w>
id ents</w>
▁sh ort</w>
ci ence</w>
ad v
▁Mar ch</w>
i b▁
f t</w>
▁w elfare</w>
rem e</w>
▁auth or
i▁ n▁g</w>
g ue</w>
res pon
▁con n
J ap
i▁ ll</w>
e f</w>
a▁ me</w>
▁f ar</w>
m a
it al
▁organiz ation</w>
▁Comm ission</w>
▁in surance</w>
it er
e▁ en</w>
ap e</w>
&q▁u o▁t;</w>
▁st age</w>
cl os
▁in fl
▁st ore</w>
▁S he</w>
t▁ e</w>
ap er</w>
▁lea st</w>
▁b us</w>
ow n
per s
▁ex isting</w>
▁ch arg
o g▁
en ess</w>
f ied</w>
or ts</w>
h▁ ave</w>
▁l ittle</w>
▁direc tly</w>
d evelop
ib r
w▁h ich</w>
eg r
▁Ch o</w>
▁fe es</w>
b or
▁l os
▁t ell</w>
▁bas ic</w>
d em
▁g iven</w>
▁j udg
o th
m os
▁ad ded</w>
an ted</w>
▁b loc
▁l ater</w>
iti ve</w>
ou▁ nd</w>
e▁ nd</w>
▁s em
▁1 0
es ▁s</w>
id ay</w>
id ing</w>
▁re vis
ac y</w>
▁an y
itt▁ ee</w>
h▁ ed</w>
▁sec urity</w>
▁ap prov
▁l and</w>
▁appl ied</w>
our ces</w>
em ploy
▁play ers</w>
us tice</w>
▁n ews</w>
ound ation</w>
e k</w>
si▁ on</w>
▁c irc
itt en</w>
▁b enef
cl es</w>
c are</w>
▁surv ey</w>
ou t
ab o▁ut</w>
▁c andid
▁T a
p eop▁le</w>
▁no tif
und ai</w>
▁For m</w>
r up
ad em
▁hist ory</w>
▁St ates</w>
▁n on</w>
▁a n▁d</w>
▁rec ogn
▁r is
▁Wor ld</w>
in king</w>
anufac tur
ter ed</w>
at ors</w>
p tion</w>
▁1 1
ea th</w>
▁enj oy</w>
p o</w>
▁prev ious</w>
▁con f
i on
▁B ecause</w>
r▁ es
▁op port
oc c
▁bu y</w>
qu art
▁ha ving</w>
au gh
ea ce</w>
▁prom ote</w>
o o▁n</w>
e y
▁o ff
y ou▁
ucl ear
▁d eb
j ur
▁val ue</w>
o▁n g
ministr ation</w>
▁tak en</w>
▁G roup</w>
ear ed</w>
sl and</w>
ann oun
▁f ans</w>
O ▁
u▁ st</w>
▁” ”</w>
▁d ev
if ied</w>
g en
vers y</w>
der g
▁k eep</w>
Y ▁
▁s ociety</w>
Gyeong gi</w>
▁Am ong</w>
▁fri ends</w>
▁custom ers</w>
▁b or
tiv ely</w>
an▁ g</w>
H y
▁Prov ided</w>
▁Am eric
&ap▁os ;s</w>
▁E m
pl ac
▁wor ks</w>
▁ac cor
s us
▁o thers</w>
▁Intern ational</w>
ic k</w>
ati ves</w>
▁f ea
g ed</w>
▁ra ised</w>
▁civ il</w>
e d▁
▁h om
▁F irst</w>
un d▁er</w>
▁j oint</w>
▁complet ed</w>
▁real ly</w>
▁at trac
on al
▁en g
d ent</w>
n am
▁represent ative</w>
t ak
ic ial</w>
▁th ough</w>
▁fun ds</w>
aff ic</w>
▁ro ad</w>
▁conditi ons</w>
▁fin al</w>
t▁ wo</w>
af e</w>
▁ 00</w>
S▁ e
▁employ ment</w>
E x
ye on</w>
c le</w>
e a▁r
▁s ix</w>
c▁ om
on▁ ly</w>
▁overs eas</w>
▁mater ials</w>
e ep
om an</w>
▁R us
▁for m
▁for m</w>
▁n ear</w>
▁h ouseh
▁a ch
s ite</w>
d ef
c▁ es</w>
s▁ uch</w>
▁L et</w>
▁particip ated</w>
▁f ace</w>
af f</w>
rou ps</w>
rec e
▁ev ents</w>
b ro
W ▁
c i▁
▁On e</w>
angu age</w>
▁s ize</w>
▁fac ility</w>
li er</w>
a▁ ti▁on</w>
en cies</w>
loc ▁al</w>
s uch</w>
▁sup ply</w>
▁m ove</w>
e ans</w>
▁high er</w>
▁trad itional</w>
il ar</w>
S ec
▁l ead</w>
t e▁r</w>
▁Ass ociation</w>
id ence</w>
▁c all</w>
olog ical</w>
ip s</w>
e▁ v
st▁ em</w>
por ted</w>
▁s eason</w>
o es</w>
el t</w>
ea k</w>
o▁ ol</w>
i▁ ed</w>
w ell</w>
th ey</w>
▁bec om
ob er</w>
em ale</w>
form▁ er</w>
▁vic ti
ap pl
▁exch ange</w>
re w</w>
i er</w>
ar d
▁reg ion</w>
▁contro l</w>
▁ap pro
▁pos sibility</w>
▁s o
th em</w>
j e▁ct</w>
▁p ass
str ▁
n ext</w>
e an
ur al</w>
▁n ever</w>
e▁n ts</w>
der ed</w>
per form
com p▁
▁exhib ition</w>
ea ch</w>
u▁ m
a ud
▁atten ded</w>
a▁ tio▁n</w>
ot ed</w>
or din
▁streng th
▁H ouse</w>
▁offic er</w>
▁m akes</w>
red it</w>
si ons</w>
el ing</w>
qu ▁
o th▁er</w>
c r▁
J e
▁sub mit</w>
▁rul ing</w>
▁r ights</w>
e▁ e</w>
▁it ems</w>
▁activ ely</w>
o i▁n
es ting</w>
C oun
eg u</w>
th e▁re</w>
it▁ ed</w>
frastruc ture</w>
ex ual</w>
▁rec ent</w>
▁dr aw
es n</w>
▁eff ect</w>
▁Fin ancial</w>
ro ad</w>
ag n
▁i ▁n</w>
e igh
▁wh i▁ch</w>
ee k</w>
▁fri end</w>
▁ag o</w>
t on</w>
▁eval uation</w>
pl ace</w>
▁tr y</w>
w it
▁doc uments</w>
J ae</w>
ti al</w>
▁f ur
▁ex ten
on▁ g
ul d</w>
▁k in
▁en ti
&a▁ p▁os;s</w>
▁wor ds</w>
▁dec ision</w>
▁g o▁
▁sh are</w>
▁A b
ex p▁
▁eas y</w>
▁cos ts</w>
▁A pril</w>
anc ed</w>
a▁ n▁d</w>
▁ar res
i▁ c</w>
a▁ d
ul a</w>
pl ▁e</w>
rec ▁
c s</w>
b ur
▁i ▁s</w>
ati v
▁increa sing</w>
▁im p
ver ▁
il ies</w>
▁ph one</w>
n eg
com ▁
▁ret urn</w>
d own</w>
▁c al
re h
c our
a ther
ud e</w>
▁accor dance</w>
▁Democr atic</w>
u▁ t</w>
o▁ me</w>
port ation</w>
▁stud ent</w>
▁conduc t</w>
in▁ to</w>
trib ution</w>
el eb
us ing</w>
and ed</w>
W ▁e</w>
▁acc ount</w>
u t▁
m ental</w>
in t▁
▁qu esti
▁fun c
▁oper ate</w>
u ment</w>
▁J uly</w>
ag ▁e</w>
ept ember</w>
▁d u
e▁ a</w>
A d
a▁ s
▁a verage</w>
▁D ong
▁lea ve</w>
▁cour se</w>
▁dec rea
e er</w>
▁w ar</w>
▁appl ic
ig ▁
f e</w>
y s
▁op position</w>
▁E uro
▁oper ating</w>
▁cooper ation</w>
▁St ation</w>
m ov
▁hou sing</w>
▁sign ific
em▁ ent</w>
d▁ ing</w>
▁respon se</w>
▁J une</w>
i ety</w>
▁Sup reme</w>
▁author ities</w>
ar▁ ge</w>
▁s een</w>
pl ay
e▁n ce</w>
▁vol un
▁re view</w>
▁Sh in</w>
▁b usin
▁neg oti
ultur ▁al</w>
ec h</w>
er▁ al</w>
&ap▁os; l▁l</w>
▁d eg
U .▁
&a pos;▁s</w>
▁h ospital</w>
▁comp ared</w>
en ding</w>
&q▁u ot▁;</w>
i▁ ve</w>
▁e r
r▁ e
▁Hy undai</w>
w a</w>
▁o ▁f</w>
▁grow ing</w>
t u▁re</w>
▁r ole</w>
▁prom otion</w>
▁p ain
▁plan ning</w>
p op
▁ar t</w>
▁e ffici
ic i
i x
ar▁ y</w>
un ication</w>
it ors</w>
▁g en
▁S chool</w>
es tion</w>
ec on
il▁ l
o h</w>
▁B l
c o</w>
▁sec tor</w>
ven tion</w>
an▁ t</w>
ph as
R es
▁st ory</w>
a▁c k</w>
▁&a pos▁;s</w>
a g</w>
▁trav el</w>
▁tem per
w▁ ay</w>
c al
▁&a pos;▁s</w>
▁r eas
▁elec tion</w>
▁@ -▁@</w>
▁lea der</w>
▁p us
▁tri al</w>
▁e at</w>
▁emerg ency</w>
u k
er n</w>
▁r un</w>
cl us
&▁ apo▁s
us ted</w>
a▁ p
ep end
▁politi cal</w>
▁hear d</w>
ear ly</w>
te▁r m</w>
fir st</w>
P ark</w>
th y</w>
us tr
if t</w>
ff airs</w>
p▁ ol
S e▁
tron ics</w>
ov e▁r
▁r un
▁f ew</w>
▁tr illion</w>
v ice</w>
▁m inis
▁d ust</w>
d on
e▁ t
g ood</w>
s▁ ec
ct ober</w>
es ▁t</w>
ar m</w>
▁inv ol
▁reg is
o▁ se</w>
▁ex tr
▁some thing</w>
▁pos ition</w>
en ded</w>
▁f estival</w>
D is
▁dis p
▁Y oon</w>
for t
▁diffic ul
▁bel ieve</w>
▁ra ther</w>
▁str uc
▁intro duced</w>
▁sh ows</w>
K▁or ea</w>
▁cl as
dis ▁
▁im medi
s▁ es</w>
T h
▁1 st</w>
▁out side</w>
▁N o</w>
uc ▁
▁includ e</w>
▁adv ance</w>
is is</w>
oun tain</w>
▁rev ealed</w>
U.▁ S.</w>
ou r▁
▁w age</w>
▁cl ose</w>
oun ds</w>
g▁ et</w>
ec tive</w>
rel ▁
ap p▁
▁b ir
en▁ cy</w>
▁as k</w>
ish ing</w>
▁reg ular</w>
in crea
▁M any</w>
in ing</w>
▁meth od</w>
wor k
a▁c t</w>
20▁ 1
▁wr itten</w>
▁j oin
▁d en
s▁ aid</w>
ev▁ en</w>
▁res pec
i o▁ns</w>
c ap
▁purch ase</w>
s▁ he</w>
▁m ess
pos al</w>
b all</w>
anu ary</w>
▁j obs</w>
▁curr ently</w>
▁4 0</w>
i j
pl es</w>
▁g roups</w>
h n</w>
en ti▁
▁l egal</w>
if ic</w>
a▁ use</w>
P ar▁ty</w>
l aw
f e▁
▁m en</w>
ma▁ de</w>
▁r ise</w>
▁d aily</w>
o .</w>
▁pol icies</w>
▁dis ab
og rap
h eld</w>
ef ul</w>
2 nd</w>
▁t omorrow</w>
▁Tr ans
ug ust</w>
▁bel iev
herein after</w>
▁indus trial</w>
spec ially</w>
p eople</w>
quart ers</w>
▁l eg
▁l ower</w>
▁cont ents</w>
pl ement</w>
▁Gang won</w>
Pa▁r k</w>
enc ed</w>
▁Pr ime</w>
ou▁ th</w>
▁develop ed</w>
▁d ro
▁spec ial
th eir</w>
j o▁
g overnme▁nt</w>
eb ru
▁u su
▁opin ions</w>
▁id enti
ow l
▁prepar ed</w>
u▁ p</w>
▁B ank</w>
m any</w>
3 rd</w>
ar r
▁deliber ation</w>
▁1 2
. 3</w>
ye a▁r</w>
n um
l ar
▁sever al</w>
op ping</w>
d ro
inc l▁
▁med ium</w>
op s</w>
▁poin ts</w>
c ul
on ly</w>
▁th a▁t</w>
or t
ell ing</w>
ed ge</w>
s en
▁s old</w>
▁c ities</w>
ex pl
ail able</w>
on ▁e</w>
▁vehic le</w>
▁ ation</w>
▁an sw
ev▁ el</w>
▁f av
con c
▁s ugg
▁establish ment</w>
ot t
k n
a i▁n
▁need s</w>
u ture</w>
etw e▁en</w>
▁k ey</w>
. 2</w>
tif ul</w>
s y</w>
m ar
▁D ae</w>
▁t old</w>
e el</w>
compan i▁es</w>
fac il
▁happ y</w>
▁need ed</w>
g n
▁loo king</w>
▁l anguage</w>
▁stat us</w>
▁fil m</w>
C i▁ty</w>
▁prof essi
▁R ec
ir ect</w>
▁cl aim
▁pres ent</w>
▁opin ion</w>
ar ter</w>
▁crea ted</w>
▁L and</w>
▁m anufactur
▁f arm
▁aud it</w>
in c▁
at▁ ic</w>
▁com b
g re
n▁ ow</w>
▁P ublic</w>
▁Ch ung
▁par ties</w>
▁administr ation</w>
▁concer ning</w>
▁en ough</w>
▁pl aces</w>
▁design ated</w>
t al
▁cl ear</w>
e un</w>
▁re port
▁on line</w>
▁equ ipment</w>
iqu e</w>
y ears</w>
a▁ ys</w>
a▁ m</w>
ann ed</w>
▁k ind</w>
▁ill egal</w>
ti▁ ons</w>
ab il
t▁ ing</w>
▁sim ilar</w>
▁A sian</w>
l iv
▁beg in
▁pas sed</w>
▁m om
a▁n g
▁phot o</w>
ae j
wh en</w>
sti m
▁natur al</w>
u▁ d
or ry</w>
i very</w>
▁Tr ade</w>
in▁ gs</w>
▁rec ru
ol o▁
a▁ le</w>
▁t▁ o</w>
en d▁
con ven
▁includ ed</w>
▁govern ments</w>
ch airm▁an</w>
ar ant
ti on
k et</w>
i▁ r
▁A nd</w>
▁reg ulations</w>
▁us ers</w>
▁sus pec
▁t akes</w>
▁open ed</w>
▁dis trict</w>
▁cont ent</w>
um e</w>
ch e▁on</w>
▁o il</w>
gr ic
▁en ergy</w>
▁H an</w>
▁S ung</w>
un der
t▁ ly</w>
g l
e▁ ty</w>
▁un iversity</w>
▁en ter</w>
sup po▁rt</w>
▁iss ues</w>
▁det ails</w>
ick ly</w>
ou▁ l</w>
mon th</w>
▁1 3</w>
o▁ nd</w>
▁contro versy</w>
for cement</w>
s ang
▁s even</w>
rea m</w>
▁progr ams</w>
ch ang
g round</w>
▁t arg
▁c am
▁St ate</w>
▁P h
f un
t ee</w>
m a▁r
I ▁
tern oon</w>
t w
n er
au ght</w>
Kore▁ a</w>
▁an im
▁A gency</w>
. 6</w>
▁chang es</w>
c ▁e</w>
h ea
▁prin ci
d ings</w>
▁l ost</w>
as tic</w>
▁m et</w>
iv ely</w>
▁ch ief</w>
wh i▁le</w>
▁ter ms</w>
ol ds</w>
▁f inis
▁S eptember</w>
▁J i</w>
ent ers</w>
i▁ m</w>
b ers</w>
▁s ports</w>
s er
ester day</w>
▁comm issi
v ari
ucl ear</w>
▁t as
▁r ice</w>
▁pres s</w>
tr ic</w>
▁L iber
m i▁n
an tly</w>
▁pic ture</w>
▁exper i
▁cons ult
p ite</w>
▁re duce</w>
▁inter ested</w>
ain▁ st</w>
▁V iet
▁Dep artment</w>
▁t ow
▁f all</w>
▁exp and</w>
. 1</w>
▁contin ued</w>
▁buil t</w>
▁par ts</w>
oo k
an▁ ge</w>
▁d evel
an▁ g
j ust</w>
irec tor</w>
g overn
l ow</w>
d on▁g</w>
▁m et
▁ac tive</w>
▁underst and</w>
t▁ ime</w>
. 4</w>
▁t w
▁D uring</w>
▁e duc
ow▁ er</w>
G ye
▁ret ur
▁s ett
▁Y ang</w>
▁sc ene</w>
tur al</w>
b▁ e
et ary</w>
▁determ ined</w>
▁f emale</w>
u▁ se</w>
our th</w>
p▁ ar
eti tion</w>
l ife</w>
▁1 3
est ablis
▁Intern et</w>
▁su ffer
▁d eath</w>
ro om</w>
▁g ave</w>
e▁ se</w>
&a▁po▁s ;t</w>
J ung</w>
▁tri p</w>
is ions</w>
i ent</w>
▁recor d</w>
ov ember</w>
▁Hy un</w>
▁A ffairs</w>
wh ere</w>
p as
i▁ ly</w>
at▁ es</w>
▁sum mer</w>
s k
ad s</w>
l ong</w>
▁g etting</w>
gover ▁n
▁Ad ministration</w>
o ot
▁s aw</w>
▁ et</w>
▁sp read</w>
▁w oman</w>
▁h y
p t</w>
▁sus pen
▁st ation</w>
▁manag er</w>
orpor ation</w>
. 8</w>
at e▁d</w>
▁typ e</w>
b us
ear ing</w>
&▁a pos;s</w>
t in▁g</w>
p ar▁
▁sched ule</w>
▁tr affic</w>
od e</w>
l▁ ike</w>
▁l ight</w>
▁s ea
y le</w>
▁busin esses</w>
▁ac qu
h s</w>
▁in side</w>
▁l ec
▁consid ered</w>
▁charac ter
▁G od</w>
▁201 6</w>
U .S.</w>
▁prescri bed</w>
▁devel op</w>
▁f ee</w>
s al
f ro▁m</w>
▁eas ily</w>
&apo▁s ;</w>
▁Wh y</w>
▁M us
tu ally</w>
▁J anuary</w>
a▁ e</w>
g ener
▁st aff</w>
ad ministr
or ed</w>
▁E conom
f u▁
▁compl ex</w>
▁improv ement</w>
en ed</w>
b etwe▁en</w>
▁infl u
▁M anag
vi ew
A n
▁be h
▁M r.</w>
▁tea ms</w>
▁g oods</w>
▁Elec tronics</w>
N orth</w>
▁con fl
▁B e
con sid
sc ri
▁P er
▁O ctober</w>
l ev▁el</w>
in st
▁iss ued</w>
incl▁ ud
c a▁n</w>
▁par king</w>
▁l ist</w>
▁al one</w>
▁1 6</w>
is tics</w>
▁wee k
▁min imum</w>
▁d on
pl ay</w>
enc ▁e</w>
r en
ell ent</w>
▁sen ior</w>
ea▁ r</w>
di ff▁
art ph
an ch</w>
g▁ h
▁av ailable</w>
ti t
mos ph
▁w anted</w>
▁comm er
istr i▁ct</w>
a em
▁ch airperson</w>
▁pati ents</w>
▁&qu ▁ot▁;</w>
e ight</w>
▁hea t</w>
▁fam ous</w>
onal d</w>
c urr
y▁ ear</w>
om ic</w>
▁C l
um st
ot te</w>
▁e stim
▁du ties</w>
▁201 8</w>
j ong</w>
▁stand ards</w>
▁person nel</w>
▁de emed</w>
▁b ig
▁b us
▁immedi ately</w>
p▁ ublic</w>
▁mat ch</w>
u tiful</w>
d ays</w>
com m▁
9 th</w>
G over
▁v ac
▁larg est</w>
k no▁
▁s ou
G wang
▁S pec
d o▁ng</w>
▁F estival</w>
in e
g▁ h</w>
▁p .m.</w>
▁b ack
bas ▁ed</w>
▁trans portation</w>
▁2 nd</w>
s ucc
▁h and</w>
h y</w>
▁v illage</w>
e▁ m</w>
0 0
p u▁
at ch</w>
rea n</w>
▁ar ti
wi▁ t▁h</w>
▁est ate</w>
os ▁
&a▁ pos;</w>
▁proper ty</w>
▁g ather
s ign
T▁ he</w>
▁d oll
▁stand ard</w>
▁inten ds</w>
▁j ud
▁individ ual</w>
▁contin u
s ome</w>
in ter</w>
▁go al</w>
▁sub mitted</w>
te▁ am</w>
▁l ack</w>
▁A ugust</w>
▁A ir
th ly</w>
tiv es</w>
▁t ick
di ffic
▁us er</w>
t eam</w>
p▁ or
▁c old</w>
ebru ary</w>
ic on
erv ation</w>
▁do esn</w>
▁Da egu</w>
en sive</w>
▁m ight</w>
s iz▁ed</w>
▁institu tion</w>
▁m obile</w>
k y
em entary</w>
▁requ ir
is ted</w>
an▁ s</w>
▁hea d
▁comp ens
▁car ried</w>
pr is
com ▁p
av ▁
▁h on
. 7</w>
▁w it▁h</w>
▁$ $</w>
s ay
art ments</w>
▁tal k</w>
D istri▁ct</w>
▁pro g
der ly</w>
ab out</w>
a x
▁l ives</w>
ab ly</w>
▁r ap
▁ind ic
ag re
▁g ir
▁W a</w>
▁vehic les</w>
▁requ ired</w>
busin e▁ss</w>
,0 ▁00</w>
b er
▁do ing</w>
▁th ing</w>
vis ▁
▁fam ilies</w>
▁proc ed
o ds</w>
▁fur ther</w>
▁sing le</w>
inc i▁al</w>
ur s</w>
▁bel ow</w>
▁S ing
h er
▁en d
▁analy sis</w>
ac t▁
▁car s</w>
w ide</w>
n▁ or</w>
hi▁ gh</w>
al l▁
5 ▁
h▁ in</w>
▁ad ver
▁Th ese</w>
st ar
▁oper ated</w>
Ch ina</w>
a▁ in</w>
▁C EO</w>
w o▁
ins ula</w>
▁n etw
s s▁
Ko▁ rean</w>
▁restaur ant</w>
▁rel ation
▁c redit</w>
▁A ll</w>
si b▁
b us▁
▁questi ons</w>
▁approv al</w>
▁1 8</w>
S u
▁C urr
pro sec
f il
▁Se ung</w>
res ent
ong er</w>
ul es</w>
ow i▁ng</w>
oo▁ k</w>
▁lear n</w>
▁cont act</w>
▁L abor</w>
▁ag ric
f y</w>
ti▁ es</w>
h el
▁sh ip
▁D ef
ul ed</w>
▁J ang</w>
&ap▁os; ve</w>
▁b ill</w>
i f▁
▁str ateg
▁fu nd</w>
▁exam ple</w>
▁Prov incial</w>
▁Dec ember</w>
▁ap artment</w>
us ▁ed</w>
▁y et</w>
▁opport unity</w>
▁mod el</w>
▁1 4</w>
y i▁ng</w>
in to</w>
cont in
a▁r t</w>
▁p oor</w>
▁201 7</w>
on d
▁T V</w>
y er</w>
p o▁l
▁G u
&a▁pos;▁ d</w>
o ff▁
be i▁ng</w>
▁pers onal</w>
▁Pro f
mor ▁e</w>
li▁ ke</w>
ati▁ onal</w>
▁rece iving</w>
▁cr isis</w>
i▁g n</w>
b r▁
▁ch o
l ea▁
▁M ed
▁& a▁
▁wh ole</w>
▁im plement</w>
▁19 9
o▁ c
et ed</w>
ell ig
▁consid ering</w>
▁ch airman</w>
▁1 ,
E duc
m arket</w>
▁man age</w>
▁y outh</w>
▁f elt</w>
an▁ y</w>
▁temper ature</w>
o ke</w>
an d▁
▁all eg
ear▁ ch</w>
▁execu tive</w>
▁ag encies</w>
ef o▁re</w>
a x</w>
▁aut om
il d</w>
▁lea ding</w>
▁ur ban</w>
▁appoin ted</w>
ig r
▁trans fer</w>
▁B y</w>
▁un ion</w>
▁M on
ta▁ ke</w>
pr ec
k ▁ed</w>
▁star ting</w>
▁m other</w>
▁ac tual</w>
▁J ustice</w>
▁ha p
▁b ad</w>
ou l▁d</w>
U ▁
▁S tr
▁ind epend
▁g ames</w>
wo▁r k</w>
at s</w>
▁a ▁
▁V ice</w>
▁b ank</w>
ong s</w>
ul ate</w>
▁del ivery</w>
▁e y
▁P en
p ay
▁s t▁
▁high est</w>
▁S ong</w>
p ublic</w>
f a▁
▁C orporation</w>
▁ac tion</w>
i▁n ce</w>
▁expres sed</w>
em en▁t</w>
▁s ent
▁J in</w>
▁wor k
you▁ ng</w>
▁Y oo</w>
l der</w>
▁K yung</w>
oc ks</w>
▁sec retary</w>
▁or dered</w>
▁u til
D ec
▁consum ers</w>
m▁ ay</w>
ar ies</w>
▁coll ege</w>
▁dis aster</w>
▁&▁ amp;</w>
o ts</w>
l eg
d uri▁ng</w>
I n</w>
▁r e▁
▁h it</w>
▁d one</w>
▁c entral</w>
▁boo ks</w>
p riv
▁I r
m▁ it</w>
d u▁
eed ed</w>
▁bea utiful</w>
▁f re
eleb r
Prov ince</w>
oo t</w>
si▁ te</w>
c▁ il</w>
▁reg arding</w>
▁c amp
▁a head</w>
▁A t
e▁n t
▁orig inal</w>
▁h o</w>
▁in nov
▁em phas
a ult</w>
▁re duced</w>
▁h e▁
▁del iver
▁2 5</w>
i▁ de</w>
or ing</w>
por ting</w>
▁O h</w>
the▁ y</w>
▁S m
mosph ere</w>
&ap▁os; re</w>
▁s ee
▁ref lec
s▁ tr
▁eff orts</w>
▁lo an</w>
▁U .
tr▁ y</w>
o▁ u
▁h ot</w>
ur ed</w>
e▁ ment</w>
v ic
S am
. 9</w>
&ap▁os ;</w>
▁cap ital</w>
▁J eong</w>
i▁c y</w>
li k
e▁ ss
qu al
▁v en
u g</w>
▁th ere
▁cer tific
is ten
▁exam ination</w>
tribu ted</w>
r ight</w>
▁F rom</w>
h▁ o</w>
c os
clud ed</w>
▁com es</w>
ib er▁
▁w i▁ll</w>
▁f ell</w>
eal s</w>
▁wea ther</w>
af t</w>
pos sible</w>
▁charg es</w>
s ang</w>
coun t</w>
4 ▁
&ap▁os; ▁
▁s ong</w>
▁w aste</w>
▁professi onal</w>
a o</w>
▁A re</w>
ye a▁rs</w>
ec▁ ts</w>
ti on▁s</w>
o f▁f
▁T echn
our ce</w>
h ol
a j
▁conc entr
▁H wang</w>
s e▁r
et c</w>
o ch
h im</w>
f▁ rom</w>
d▁ r
P r▁
Or din
▁sk in</w>
ec t▁ed</w>
▁Liber ty</w>
▁p r▁
m on▁
our n
in tro
sec o▁nd</w>
d e▁r</w>
▁qu ickly</w>
▁con ference</w>
ut ors</w>
oun▁ g</w>
augh ter</w>
▁M ot
u▁ ch</w>
▁dis t
ent ing</w>
▁commissi oned</w>
ent▁ ly</w>
▁N ovember</w>
▁Gang nam</w>
erm any</w>
▁wat ch</w>
▁ab o▁ut</w>
e p▁
ol l▁
▁in jur
▁cer tain</w>
s in▁ce</w>
ov ed</w>
m us
▁s anc
tim ▁e</w>
▁y esterday</w>
▁g overnor</w>
F in
▁s pen
▁implem entation</w>
m i▁
▁broad cas
pr i▁
▁ch urch</w>
u▁ al</w>
ff i▁ce</w>
▁com ing</w>
C ity</w>
▁lear ning</w>
▁succ ess
▁ar riv
sel ves</w>
▁deg rees</w>
▁Curr ently</w>
▁sc re
▁in f
▁Kor eans</w>
▁driv ing</w>
▁201 5</w>
h ood</w>
ac ks</w>
m ade</w>
▁qu estion</w>
▁investig ating</w>
▁I sland</w>
sh o▁
y ong
▁m ind</w>
it able</w>
g ing</w>
b s</w>
A m
▁wh▁ ich</w>
▁s ▁
▁inst alled</w>
▁6 0</w>
re▁ c
▁produc ed</w>
▁h er
▁r en
▁un ivers
ri ve</w>
over ed</w>
▁P eople</w>
▁ra ise</w>
sy st▁em</w>
▁h otel</w>
▁Th ank</w>
tr ad
Ko▁ rea</w>
D emocr
▁entr ance</w>
r▁ ec
por ▁t</w>
o▁r t</w>
il l▁
li am
esti g▁
▁occ urred</w>
▁col or</w>
a▁ de</w>
▁exc ellent</w>
▁H ealth</w>
▁law mak
▁concer ns</w>
▁b ri
re present
i▁n a</w>
▁perform ances</w>
is l
gr ad
▁stor es</w>
▁ris k</w>
▁requ ested</w>
s ue</w>
pl ex</w>
f l▁
▁tri ed</w>
▁s pr
▁doc ument</w>
▁comm on</w>
▁F ebruary</w>
▁Ch eong
ma▁ ke</w>
▁l if
ativ ely</w>
&▁ q▁uot;</w>
▁Trans port</w>
tr ess</w>
▁n uclear</w>
▁h eal
▁Se o</w>
t▁ ic
ay▁ or</w>
st anding</w>
▁f alling</w>
wi▁ th
▁ad d
u▁ m</w>
▁h all</w>
▁bur den</w>
he▁ l
eo▁ ple</w>
▁h os
▁concer t</w>
e f▁
▁reas ons</w>
▁D onald</w>
u ter</w>
en viron
cor por
be▁c a▁use</w>
▁cr ime</w>
▁&apo▁s ;s</w>
co▁m p
▁ach iev
v al
thr▁ ee</w>
▁tr end</w>
a ut
up s</w>
em b▁
an▁ ts</w>
wh▁ ich</w>
s ts</w>
oc i▁al</w>
m ee
▁lea ders</w>
▁d ou
▁Ch ung</w>
t i</w>
id ▁ed</w>
▁usu ally</w>
▁p resid
In dus
▁sum mit</w>
▁gu id
▁Y eong
u ge</w>
th i▁s</w>
er a</w>
e ign
C O</w>
▁super vis
▁r ound</w>
i▁s h</w>
i▁ ef</w>
iti e▁s</w>
P reside▁nt</w>
or thern</w>
au th
S up
▁prescri be</w>
&ap▁os; ll</w>
B C</w>
g▁ ed</w>
&a pos▁;</w>
▁M in</w>
as h</w>
▁reg ional</w>
▁hap pen
th▁ em</w>
i en▁ce</w>
▁imp act</w>
▁L otte</w>
v ol
▁s yst
dr aw
app oin
in ary</w>
d om
in s</w>
k ey</w>
un ities</w>
sh ar
e th▁er</w>
▁wor th</w>
w r
T V</w>
▁hear t</w>
B S</w>
▁t im
▁p un
um an</w>
i k</w>
i e▁
▁w eb
il ed</w>
ec▁ ted</w>
pro t
▁dram a</w>
t em
▁tr ying</w>
▁T ae</w>
▁s exual</w>
d in▁g</w>
s i</w>
j▁ in</w>
ic ally</w>
▁sub par
▁3 rd</w>
j ob</w>
duc ing</w>
▁ac adem
t ations</w>
ae k
▁s ense</w>
▁S ang</w>
▁inter pre
r i</w>
M anag
D a
el▁ y</w>
j i</w>
e▁ st
ult i</w>
Un iver
▁mat ter</w>
▁coun cil</w>
i p▁
▁Reg arding</w>
iv ▁e</w>
&▁a p▁os
▁comm unication</w>
th e▁r</w>
▁Def ense</w>
▁2 4</w>
is on</w>
tr i▁al</w>
an ch
▁m o
▁m etropolitan</w>
or d</w>
m ake</w>
▁st op</w>
▁atten d</w>
ibr ary</w>
▁tr ue</w>
d▁ id</w>
olo▁ gy</w>
igh▁ t</w>
a▁ ble</w>
▁s ea</w>
▁in ter</w>
▁circ umst
s em
gr o▁
ab or
▁win ter</w>
manag eme▁nt</w>
ea▁ ch</w>
b rea
▁relation ship</w>
▁d own
▁adv ant
ess ing</w>
announ c▁ed</w>
▁pres sure</w>
▁mark ets</w>
▁& q▁u
on str
i on▁s</w>
a▁ ri
S ou▁th</w>
Comm itt▁ee</w>
▁f ig
s et</w>
d ue</w>
▁intro duce</w>
▁go▁ ing</w>
ye▁ ong
c u▁
t▁ ri
▁ex erc
▁br and</w>
▁w id
ut or</w>
oh n</w>
▁sit es</w>
▁ann ual</w>
g re▁
▁ph ys
ell s</w>
▁br ing</w>
iti ons</w>
e▁n s</w>
o in▁
at t▁
wh at</w>
▁r ead</w>
▁ey es</w>
s▁ p
ea t
In tern
icon duc
▁Al so</w>
et e</w>
direc t▁or</w>
▁m emor
▁M ost</w>
▁f requ
▁cri tici
st and
a▁ ir
▁s ession</w>
e um
ou▁ se</w>
▁th e▁re</w>
▁ser ies</w>
t ation</w>
h os
Ordin an▁ce</w>
ai▁r s</w>
P ro▁
▁K ong</w>
▁enter pr
ic ▁es</w>
sh▁ ip</w>
inten dent</w>
▁cou ldn</w>
ul▁ ar</w>
▁predic ted</w>
pro m
4 0</w>
ear by</w>
h ea▁
▁l ow
▁n orm
cl u▁
N at▁ional</w>
▁victi ms</w>
▁mom ent</w>
▁c aught</w>
ev al
e▁x t</w>
▁N am</w>
▁sup pl
h ing</w>
ec o▁n
▁organiz ed</w>
▁Manag ement</w>
▁D irector</w>
s▁ oo</w>
▁c enters</w>
▁benef its</w>
por ▁ts</w>
f ace</w>
m emb▁er</w>
▁ow ner</w>
▁eval u
▁for ward</w>
▁wr iting</w>
u i</w>
▁f ile</w>
it▁ ion</w>
▁struc ture</w>
▁re duction</w>
▁im m
▁foll owed</w>
▁R e
▁F und</w>
su▁ r
▁sh owing</w>
uclear ization</w>
it▁ s</w>
in stitu
et ings</w>
d ec▁
e o▁n</w>
evelop ment</w>
▁vi ew</w>
▁s ays</w>
▁n ation</w>
k▁ ing</w>
ular ity</w>
▁res ources</w>
▁play ed</w>
▁af ternoon</w>
i▁ or</w>
e▁ ar</w>
el ds</w>
c ast</w>
▁inter view</w>
▁hea vy</w>
▁ar gu
d oc
▁e ight</w>
i▁ f</w>
inv est
t oo</w>
▁r ates</w>
▁int egr
▁it self</w>
t ake</w>
rou▁ nd</w>
is ter</w>
▁pop ulation</w>
▁dis c
wor ld</w>
O S
vari o▁us</w>
tain ment</w>
p resid
b l▁
Prov inc▁e</w>
▁dis tribution</w>
▁Rus sia</w>
▁N am
▁d uty</w>
am ▁e</w>
▁L ocal</w>
oi▁n t</w>
k en</w>
dic tion</w>
▁enter ed</w>
▁compl ain
v e
ur ▁es</w>
▁custom er</w>
ter ▁
e or
ar t▁
ans ion</w>
▁el ig
▁buil d</w>
ar ded</w>
tis ts</w>
m in</w>
▁laun ched</w>
▁Y ong
▁var iety</w>
▁H igh</w>
▁Dis trict</w>
▁particip ants</w>
aus ▁e</w>
▁m er
▁c ut</w>
▁beh ind</w>
▁educ ational</w>
ar▁ d</w>
s er▁
n ec
▁acc idents</w>
t ained</w>
▁c ur
▁begin ning</w>
S▁e oul</w>
l ement</w>
h i▁s</w>
e i</w>
▁sus pic
▁cl ub</w>
▁at mosphere</w>
▁w in</w>
▁indus tries</w>
▁differ ence</w>
in d▁
e▁r n</w>
▁Prof essor</w>
ener al</w>
econ om▁
▁v ice</w>
▁t aste</w>
▁corpor ate</w>
ab les</w>
▁Com p
▁high ly</w>
▁f ather</w>
▁Sec retary</w>
▁G ermany</w>
ti▁ n
oth es</w>
▁hol ding</w>
▁D es
wh ile</w>
▁mess age</w>
tic ism</w>
a▁ d</w>
U S</w>
▁en cour
▁bo ard</w>
f in▁
ed eration</w>
▁p or
a ul
▁r ain</w>
▁enti re</w>
os eon</w>
er ies</w>
▁ad vis
F or
▁fil ed</w>
▁comp reh
▁m as
▁In frastructure</w>
▁Ch airperson</w>
w ou▁ld</w>
sch o▁ol</w>
n▁ am</w>
m es</w>
tur ▁e</w>
&ap▁os▁ ;
▁wr ong</w>
▁m en
si▁ de</w>
h a</w>
▁foc us</w>
me ans</w>
f ood</w>
l i▁ne</w>
h ous
M in▁
▁s ale</w>
▁de pos
▁In v
me▁ m
ar b
ul ated</w>
▁b ase</w>
▁Spec ial</w>
▁S un
▁1 7</w>
ea ter</w>
T h▁e</w>
ea▁ n</w>
ar ily</w>
▁sm artph
▁res t</w>
▁particip ation</w>
istr ation</w>
ag ain▁st</w>
▁G r
m in▁
m uch</w>
tr o▁
▁inc ident</w>
▁hou ses</w>
n on</w>
▁el derly</w>
▁t en
▁sh opping</w>
ivers ary</w>
▁notif y</w>
▁g row</w>
▁prot ection</w>
onom y</w>
j us
im prov
▁wh ose</w>
▁h our</w>
▁entr usted</w>
▁L ea
oo king</w>
b ass
b and</w>
S erv
▁kin derg
ap pro
▁coll ection</w>
▁volun te
in ▁e</w>
▁th em
▁gu arant
▁4 th</w>
w▁ or
a f▁
▁im age</w>
s ame</w>
▁trans ac
▁av o
e i▁
▁real ity</w>
id ge</w>
▁tea cher</w>
▁enj oy
i▁ ze</w>
a▁ fter</w>
s om
▁dis ease</w>
eti c</w>
con struc
ar ea</w>
▁Rep resent
i en
K i▁m</w>
owl edge</w>
o in</w>
l obal</w>
▁Se ong
▁sched uled</w>
▁S on</w>
ud d
f ully</w>
▁ear lier</w>
inv estig▁
▁A p
sc a▁le</w>
n e▁xt</w>
l san</w>
I n▁
▁Ch eong</w>
▁C ulture</w>
comp eti
▁F ac
▁m ut
▁inst all
tiv eness</w>
in tern
▁w al
ul l
t est</w>
r▁ ea
qu are</w>
▁vis itors</w>
▁r e</w>
▁bl ood</w>
di ffer
▁some one</w>
▁accoun ting</w>
rea t</w>
▁s n
oo▁ d</w>
en▁ se</w>
ar▁ ea</w>
▁sanc tions</w>
▁r ed</w>
c ase</w>
g le</w>
▁p i
J ong</w>
D ep
eh ol
cal l▁ed</w>
▁univers ities</w>
ver s</w>
▁w ays</w>
▁repor ts</w>
▁stat ement</w>
▁L ast</w>
▁ ing</w>
t▁h eir</w>
▁g reen</w>
ec ting</w>
an e</w>
▁p oll
ur t</w>
ow▁ ed</w>
e▁ y</w>
b ack</w>
▁For eign</w>
bec au▁se</w>
▁spec ific</w>
▁rea ding</w>
su▁ ng</w>
expec t▁ed</w>
▁particip ating</w>
▁A sia</w>
ing ly</w>
h ere</w>
sh all</w>
neg oti
g row
t our
c ally</w>
a por
iv e▁r
1 0
▁d irect</w>
u▁l t</w>
t op</w>
k ch
▁s ud
ye▁ on</w>
ou gh
▁h ands</w>
▁div ision</w>
▁ac ross</w>
s ystem</w>
ae k</w>
n ey</w>
Ar tic▁
o e</w>
end a</w>
▁f ailed</w>
▁A hn</w>
ol▁ d</w>
d ev
▁m ul
ust ment</w>
▁tea chers</w>
▁Y ork</w>
p▁ r
m illi▁on</w>
▁d est
res i▁d
▁direc tion</w>
d riv
▁p ost</w>
▁d eal</w>
rea▁ se</w>
f▁ o▁r</w>
eo pl▁e</w>
b el
su▁ p
o ffici
M oon</w>
▁g round</w>
▁Pro sec
▁w ▁
▁vi ew
▁Americ an</w>
k ay</w>
it ation</w>
▁lim ited</w>
su p▁
1 00</w>
s ity</w>
memb e▁rs</w>
h▁ ow</w>
▁m ach
el ed</w>
▁s am
▁1 8
1 5</w>
▁r ati
▁inst ead</w>
rea l</w>
el imin
▁wh ite</w>
l aw</w>
A▁ ct</w>
ub ▁
C ent▁er</w>
▁pos itive</w>
mee ti▁ng</w>
▁lo ans</w>
▁chil d
▁O ur</w>
iz es</w>
ivers i▁ty</w>
▁s cor
sp▁ ec
l im
& amp;</w>
▁analy zed</w>
▁Ch ief</w>
y cle</w>
at▁ er</w>
▁s ymp
G ye▁ong
▁tour ists</w>
▁m enti
we▁ ll</w>
▁a im
sec ▁
▁Viet nam</w>
▁st ay</w>
▁wor ked</w>
▁v ir
▁sim ple</w>
▁compens ation</w>
rou gh
▁b anks</w>
m a▁ny</w>
▁St ud
l▁ es</w>
Par t▁y</w>
▁tr ain</w>
▁sol ve</w>
▁pr em
e▁ l</w>
iber▁ ty</w>
agrap hs</w>
it▁ ies</w>
▁househ olds</w>
pres ▁
fi▁ r
er ce</w>
e u
1 8</w>
▁p ot
▁Res earch</w>
▁% %</w>
s y▁
f uture</w>
a b</w>
w s</w>
▁pos ted</w>
▁agre ed</w>
y ers</w>
in form
▁rece ip
▁los s</w>
▁b ought</w>
m▁ in</w>
g▁h t</w>
Com m▁
am ed</w>
▁p o
ow ers</w>
dis tr
▁s atis
▁Rec ently</w>
p ubl
an c▁
▁mov ement</w>
▁J in
for▁ m
▁g as</w>
▁Y ong</w>
pr▁ ov
▁n ation
▁l iv
uc k</w>
pl a▁ce</w>
A r▁
▁Je oll
anc i▁al</w>
d o
c i▁ty</w>
▁pl ant</w>
▁per form</w>
▁all ow</w>
re▁ g
s c▁
f▁ ul</w>
e▁ ar
P ol
▁driv er</w>
▁re ven
▁p aper</w>
▁ev idence</w>
▁&a p▁os
is i▁on</w>
▁str essed</w>
▁s ell</w>
▁prov isions</w>
▁hear ing</w>
▁M ore</w>
▁S afety</w>
▁p m</w>
por ▁
h ist
20 1▁
▁rel ease</w>
▁f ully</w>
▁di ed</w>
so▁ o</w>
▁or din
u ▁e</w>
pri ate</w>
1 3
▁tem por
▁exc ept</w>
▁ y</w>
l▁ th</w>
ip p
er ve</w>
▁i r
▁new ly</w>
2 5</w>
▁ser ious</w>
▁s om
▁deliver ed</w>
th▁ rough</w>
&a▁pos;▁ m</w>
▁e specially</w>
k now</w>
▁coun sel
g ery</w>
0 0,000</w>
▁en sure</w>
▁environ mental</w>
enti▁ al</w>
c ity</w>
I ▁n
Democr at▁ic</w>
▁ch ance</w>
sti tu▁
d a▁y</w>
▁O f</w>
ro w▁
a im</w>
▁F oundation</w>
▁w ish</w>
▁Sec urity</w>
id ly</w>
con f
ir e▁c
re t</w>
▁th▁ at</w>
6 ▁
2▁ 0
d oor</w>
as ▁t</w>
▁invol ved</w>
ustr al
re▁ s
1 2</w>
▁negoti ations</w>
▁1 9</w>
es▁ s
ear ance</w>
an ad
S t▁
▁difficul ties</w>
p ower</w>
er i▁ng</w>
▁co ff
▁loo ks</w>
▁agric ultural</w>
▁pass eng
ea v
co▁ un
▁pr ec
▁E ast</w>
▁foll ow</w>
▁fav or
▁N ow</w>
s a</w>
i▁ te</w>
im plem
aej eon</w>
▁sh own</w>
▁re form</w>
tern al</w>
▁pre vention</w>
▁recomm ended</w>
▁E ar
o▁ un
m p
▁candid ate</w>
S .
▁t it
▁sp eed</w>
▁str eet</w>
▁in iti
▁elig ible</w>
▁el ementary</w>
▁recor ds</w>
▁p eace</w>
ill ing</w>
eb ook</w>
▁un f
▁l un
t oday</w>
▁20 th</w>
ou▁r t</w>
▁Indus trial</w>
▁becom es</w>
▁D on</w>
ter y</w>
econom▁ ic</w>
▁in s
▁M at
D ong</w>
▁tur ned</w>
▁strength en</w>
Minis t▁ry</w>
▁mater ial</w>
▁ann iversary</w>
ess▁ or</w>
▁j ur
si t▁y</w>
ou▁ gh</w>
clud ing</w>
an▁ d
▁occ up
pl om
o ff</w>
ci pl
ag ing</w>
▁pl at
don es
am o▁ng</w>
Minis t▁er</w>
▁In di
h ome</w>
A▁ r
▁go es</w>
▁gather ed</w>
spec i▁al</w>
l ymp
l a▁r
coun ▁
f▁ irst</w>
al ization</w>
In che▁on</w>
▁re ti
▁2 00</w>
t oc
▁b ar
▁ab ove</w>
▁Ab out</w>
trib ute</w>
et er
▁o ffer
▁n ature</w>
▁determ ine</w>
▁b al
▁C ultural</w>
i ation</w>
he▁l p</w>
ic an</w>
b ir
▁Su per
▁n earby</w>
▁exp ansion</w>
▁big gest</w>
▁H all</w>
▁1 0th</w>
r▁ y</w>
mark ▁et</w>
▁c elebr
ag ain</w>
▁p ass</w>
w a▁
r o</w>
▁mov ed</w>
▁candid ates</w>
▁En viron
▁C ould</w>
ul ting</w>
th ea
ch ange</w>
▁vis iting</w>
▁bl ack</w>
▁D evelopment</w>
&ap▁os; v▁e</w>
▁separ ately</w>
▁e ss
t e▁n
o▁ m</w>
▁th eme</w>
▁qu arter</w>
▁dis clos
y oung</w>
am a</w>
▁sk ills</w>
▁sec ure</w>
id s</w>
e o▁ng</w>
▁w on
▁netw ork</w>
▁d ream</w>
it▁ al</w>
6 0</w>
▁1 5
pre v
g en</w>
▁cl othes</w>
u x
p▁ ort</w>
M ar
▁f ro▁m</w>
i▁ ci
co▁ me</w>
▁W elfare</w>
oti ce</w>
J ap▁
▁complet e</w>
t ent</w>
pro bl
e▁ as
ain i▁ng</w>
▁ra ising</w>
▁res tric
▁K ing</w>
▁D ue</w>
▁pro posed</w>
▁f ourth</w>
▁L G</w>
ou▁n t</w>
it ment</w>
ent▁ al</w>
▁s ound</w>
▁en h
▁tax i</w>
▁exch ang
E lec
sp e▁
m ain
in ner</w>
fri end</w>
b u</w>
▁p ain</w>
eas es</w>
▁par k</w>
▁gener ation</w>
▁d ig
f▁ l
T S</w>
pro je▁ct</w>
a w▁
▁g re
▁for ce</w>
iv al</w>
▁n eigh
▁a .m.</w>
er t</w>
▁ha ir</w>
▁ac t</w>
s e▁c
▁K won</w>
w▁ ant</w>
num b▁er</w>
▁wh ic▁h</w>
▁hol iday</w>
▁W on</w>
▁rel atively</w>
th ere</w>
er i
al ized</w>
▁un it</w>
▁p l▁
▁intern al</w>
▁all owed</w>
▁auth ority</w>
es day</w>
el ect</w>
▁w ife</w>
▁air port</w>
▁G eneral</w>
t ea▁
s u</w>
m▁ y</w>
b a▁
▁eff ects</w>
in spec
ea ted</w>
▁reg istration</w>
op ped</w>
▁Sh in
im self</w>
▁s on</w>
▁implem ented</w>
▁con dition</w>
▁For mer</w>
▁Bl ue</w>
b eg
P h
▁separ ate</w>
▁s elling</w>
▁corpor ation</w>
▁regis tered</w>
▁add ress</w>
h w
1 9</w>
▁war r
a▁ ted</w>
as n</w>
en▁ d
▁qu al
ur ities</w>
rou ght</w>
fr▁ ee</w>
cl a▁
▁m y
▁includ es</w>
▁id ea</w>
n ation▁al</w>
en i▁ng</w>
ad ing</w>
1 1</w>
▁pop ularity</w>
▁o lder</w>
▁it em</w>
▁conven ience</w>
▁circumst ances</w>
per c
or ▁s</w>
ellig ence</w>
▁certific ate</w>
oo d
h om
▁f un</w>
▁F ood</w>
s n</w>
n▁ ing</w>
j ud
ou ▁s</w>
n▁ ment</w>
n e
m otion</w>
▁publ ic
▁menti oned</w>
ex am
▁201 4</w>
is tic</w>
ic h
m od
i▁s m</w>
▁over all</w>
▁l and
▁invest ors</w>
vi ol
o x
is diction</w>
an a</w>
be e▁n</w>
▁proper ly</w>
sh ou▁ld</w>
fo▁r m</w>
ch arac
anc y</w>
▁con trac
▁loc ation</w>
ten ance</w>
▁r ad
▁C up</w>
off i▁ce</w>
duc t</w>
ac king</w>
▁A ir</w>
ult u▁re</w>
end▁ ly</w>
O ffi▁ce</w>
2 2</w>
▁s orry</w>
▁m id
▁b ott
▁W ave</w>
p reside▁nt</w>
Ch ung
▁typ es</w>
ris ti
sm a▁ll</w>
sa▁ me</w>
g overnment</w>
b um</w>
▁re plac
▁Je on
um▁ ber</w>
sh i▁
Ass oci
▁s ure</w>
▁car ry</w>
▁S i</w>
▁H is</w>
s ▁e</w>
▁pl ac
Prov ▁
▁super intendent</w>
▁pro posal</w>
▁head quarters</w>
ye o▁n</w>
it ted</w>
Par ty</w>
▁un ique</w>
▁bro ke</w>
▁ev er</w>
ea ker</w>
at▁ ch</w>
o▁ k</w>
▁c op
im inal</w>
▁prof it</w>
▁consid eration</w>
eti mes</w>
▁st ep</w>
ow on</w>
▁s afe</w>
ec k</w>
201 8</w>
occ er</w>
if y</w>
b▁ ec
I f</w>
m en</w>
it ure</w>
h ouse</w>
g e▁n
e▁ ms</w>
f▁ am
Y oung</w>
k y</w>
com pl▁
▁b at
it▁ tee</w>
b o</w>
▁v oice</w>
▁s av
▁buil dings</w>
t en</w>
sch ool</w>
art me▁nt</w>
▁f ast</w>
t u▁r
▁viol ence</w>
▁bas is</w>
s im
ok es
ic ine</w>
em pl
p▁ er</w>
or i</w>
fort able</w>
eb all</w>
an ti
▁them selves</w>
s▁ ho▁
o▁m y</w>
ut ting</w>
P res▁
▁crea ting</w>
▁a ▁t</w>
u▁ ty</w>
t ogether</w>
▁t urn</w>
▁consult ation</w>
▁7 0</w>
c e▁n
▁web site</w>
▁prog ress</w>
con t▁
ch i</w>
▁S K</w>
ear ▁s</w>
▁Techn ology</w>
ul t▁
ester n</w>
1 8
▁wa it</w>
▁aud ience</w>
▁C o
ti▁ v
▁lim it</w>
ter m</w>
in g▁
s ti▁
▁phys ical</w>
▁grad u
▁dec l
▁cer tif
▁draw ing</w>
▁arres ted</w>
▁app eared</w>
par ty</w>
over y</w>
▁report edly</w>
▁5 th</w>
t▁ il</w>
▁rea ched</w>
▁for est</w>
▁doll ars</w>
▁S un</w>
iv il</w>
ea u</w>
▁7 th</w>
re▁ l
o ffice</w>
con tro
N ew</w>
in n
oun▁ d</w>
i▁ l</w>
▁den uclearization</w>
▁coll ected</w>
▁S cience</w>
iti▁ ng</w>
▁confl ict</w>
st▁ r
en▁ d</w>
d iv
d am
▁h uge</w>
p ean</w>
k in▁g</w>
en▁ t
▁compreh ensive</w>
ti e▁s</w>
manag ▁
▁d ance</w>
w▁h ic▁h</w>
h▁ eld</w>
▁s urr
▁co ach</w>
▁af t▁er</w>
oun ding</w>
m an▁
il i▁ty</w>
▁clos ed</w>
▁tal ks</w>
▁resol ution</w>
▁design ed</w>
▁coff ee</w>
z ing</w>
un der</w>
s▁ et</w>
▁pri ze</w>
ular ly</w>
comp any</w>
agn os
▁laun ch</w>
v a▁ri
tr a</w>
s▁ ion</w>
st at
a▁l f</w>
a▁ f
▁ex port</w>
ploy ment</w>
g ation</w>
be▁c au▁se</w>
a ign</w>
▁func tion</w>
ation ▁s</w>
▁sec tion</w>
▁P yeong
t le</w>
▁cri ticism</w>
j▁ u</w>
▁clas ses</w>
it or</w>
▁aff ili
yp toc
▁g ap</w>
▁Ch ang</w>
▁signific ant</w>
▁201 9</w>
s eong</w>
▁manufactur ing</w>
▁L im</w>
t ea
▁prov ides</w>
▁m ak
iz ▁
&apos; t</w>
udg et</w>
st or
ol ution</w>
▁s ign</w>
m en▁ts</w>
▁tour ism</w>
▁cl ean</w>
▁ab ility</w>
m a▁n</w>
at▁ ions</w>
Se ou▁l</w>
w ards</w>
on ing</w>
▁sign ed</w>
▁Indus try</w>
▁ur g
▁A gric
er ous</w>
con sum
C EO</w>
▁me etings</w>
s▁ an</w>
olog ies</w>
Gye o▁ng
▁charac ter</w>
▁Dec ree</w>
y ph
ish ment</w>
&a▁ p▁os
▁s h▁
▁prov iding</w>
j e</w>
▁prac tice</w>
▁b it</w>
▁ab road</w>
h ear
▁play er</w>
ab y</w>
▁R iver</w>
▁recogn ized</w>
▁cl ean
ow er
develop me▁nt</w>
ar e
▁receip t</w>
▁answ er</w>
un i▁ty</w>
o▁n y</w>
▁det ailed</w>
▁Kor ▁
L iber▁ty</w>
cl ear</w>
▁hea ds</w>
ub e</w>
oo▁ l</w>
▁n ur
▁er a</w>
▁ag enda</w>
ver se</w>
▁mov ies</w>
u al
s oci▁al</w>
rece iv
▁dis mis
su it</w>
m▁ on
kch ain</w>
id o</w>
dr▁ en</w>
g▁ i</w>
a▁ in
▁Su won</w>
in v▁
il es</w>
▁main tain</w>
▁ar tists</w>
▁ar ticle</w>
▁l etter</w>
▁character istics</w>
▁B o
▁every one</w>
▁Un like</w>
▁19 th</w>
en tr▁
▁respon sible</w>
af e▁ty</w>
&a▁pos▁ ;m</w>
y un</w>
tron ic</w>
▁l og
m ation</w>
com ing</w>
▁pl anned</w>
▁dep ending</w>
▁ac tually</w>
pl▁ an</w>
▁wat ching</w>
▁wa iting</w>
▁prepar ing</w>
o▁ t</w>
o▁ ld</w>
igh ting</w>
b ea
c re▁
N S</w>
▁s earch</w>
▁retur ned</w>
▁Th rough</w>
▁r an
▁div ided</w>
p▁ op</w>
op er▁
▁w ave</w>
▁ad j
n▁ er</w>
ing u
▁princi ple</w>
▁ch all
n▁ um▁ber</w>
▁for eign
▁t ou
▁res ear
ig ▁n
▁main ly</w>
▁becom ing</w>
▁stud ying</w>
▁k illed</w>
▁C entral</w>
si o▁n</w>
k ▁s</w>
apor e</w>
▁Ta i
r a▁te</w>
▁sh ip</w>
sy ch
att e▁n
▁s elect</w>
▁ow ners</w>
t▁h er</w>
ex pres
c▁ t</w>
ch ar
▁disab led</w>
▁a ward</w>
▁Y ang
o▁ ff</w>
g un</w>
ann er</w>
ad d
atten tion</w>
▁h ear</w>
▁estim ated</w>
E m
▁n otice</w>
▁al though</w>
▁1 8th</w>
J i</w>
w▁ an</w>
s▁ ee</w>
lar ation</w>
en▁ ed</w>
▁con vers
oun ded</w>
Ch i▁na</w>
▁sc ope</w>
▁every thing</w>
▁Un der</w>
&▁a pos▁;</w>
▁f air</w>
▁T oday</w>
h▁ ead</w>
a▁ y
▁commer cial</w>
s oo</w>
ic ts</w>
e▁ ts</w>
▁sub scri
▁sm o
▁fi x
▁A ustral
s eo</w>
▁househ old</w>
▁al most</w>
▁Fin ance</w>
str u▁c
s▁ u
▁elec tric</w>
▁critici zed</w>
▁J oseon</w>
a▁n cial</w>
▁g iving</w>
ta▁ in</w>
P l
us h</w>
un k</w>
p oin
ar ing</w>
am p</w>
▁prot ect</w>
▁Econom ic</w>
mo▁ st</w>
art en</w>
▁presid ential</w>
▁expec ts</w>
▁Euro pe</w>
con diti
▁ex emp
w as
n▁ eed</w>
in▁ k</w>
▁rati o</w>
▁dis app
▁crea tion</w>
or▁ y</w>
k n▁ow</w>
ent e▁r</w>
eep ing</w>
▁2 1</w>
bro ad
▁w ind</w>
▁t able</w>
▁selec tion</w>
▁rea ch</w>
▁for med</w>
▁C anad
ter n</w>
c aus
▁T ur
t▁ w
il▁ ity</w>
d▁ is
ac c▁
0▁ 0</w>
an m
▁vac ation</w>
▁sem iconduc
t▁h a▁t</w>
t o▁r</w>
o▁ w</w>
do▁ wn</w>
▁respon sibility</w>
▁im pres
y oun▁g</w>
osp it
h ou
b est</w>
ad ▁e</w>
▁wee ks</w>
c ur
me d▁
fri end▁ly</w>
U .
A l
1 2
▁intro duction</w>
▁employ ee</w>
resid en▁ts</w>
ol f</w>
▁ en</w>
ov▁ ern
d e▁c
▁meth ods</w>
▁dram as</w>
▁dr ink</w>
r ect</w>
i▁ um</w>
▁resid ent</w>
▁6 th</w>
con v
▁targ et</w>
th em
reg ul
ir ing</w>
i h
▁reg ions</w>
▁jur isdiction</w>
▁Con sid
eco▁n omic</w>
1 3</w>
▁s cience</w>
▁D aejeon</w>
sh ips</w>
ab▁ or</w>
Gye▁ong gi</w>
r▁ un</w>
it ary</w>
al ▁s</w>
▁mov ing</w>
▁claim ed</w>
▁Ex per
pos; t</w>
▁sea ts</w>
wh ic▁h</w>
re g▁
f ull</w>
▁l onger</w>
▁l ic
▁Y ear</w>
u th</w>
p▁ ed</w>
c re
▁per c
us ion</w>
sc ape</w>
ong ▁
on ds</w>
educ ati▁on</w>
ch arg
7 ▁
▁run ning</w>
▁exp anded</w>
▁arres t</w>
uc▁ h</w>
B us▁
▁t ex
▁in struc
▁del ayed</w>
20 0
▁subsid ies</w>
▁appoin tment</w>
▁any thing</w>
z ens</w>
▁cor rec
▁per mission</w>
▁acc ess</w>
onom ous</w>
i▁ ties</w>
U ▁n
Ch▁ oi</w>
ten s</w>
r▁ ee</w>
F r
i on▁al</w>
▁tr ust
▁hist or
▁fi elds</w>
g es</w>
elf a▁re</w>
▁s ens
▁f res
m ay</w>
; ▁t</w>
▁D id</w>
▁8 0</w>
ou▁ r</w>
og y</w>
ad ium</w>
res p
p▁ eople</w>
g a▁
▁proced ures</w>
s yst
e tion</w>
ro r</w>
our ism</w>
▁improv ed</w>
▁ex act</w>
t▁ er
pos iti▁on</w>
h ead
ere fore</w>
▁exerc ise</w>
▁all ow
l if
b efo▁re</w>
▁bo x</w>
s c▁h
r ate</w>
▁revis ion</w>
u ti▁on</w>
er ry</w>
b ing</w>
▁tow ard</w>
▁investig ate</w>
▁I m
h el▁
end ation</w>
at▁ io▁n</w>
▁comm unic
um s</w>
e▁ as</w>
c e▁
gro▁ up</w>
▁a b▁
comp a▁ny</w>
▁success ful</w>
▁rem aining</w>
ter ▁s</w>
o▁ or</w>
ick en</w>
▁cho ose</w>
▁Sup port</w>
it age</w>
l et
ay ▁s</w>
▁succ ess</w>
▁ma x
▁ad op
▁Euro pean</w>
▁En forcement</w>
us band</w>
un m
go▁ od</w>
▁Represent ative</w>
s or
rough out</w>
pre par
pl an</w>
▁no thing</w>
iz ati▁on</w>
ang ▁
a i▁n</w>
▁ch e
▁O ffic
pro du▁c
ow▁ n</w>
ev ent</w>
eed s</w>
Prov inci▁al</w>
▁w ants</w>
▁r ising</w>
▁cas h</w>
v i▁ce</w>
con tr
▁influ ence</w>
▁c ro
▁Th erefore</w>
u▁ te</w>
▁par t
▁gr ade</w>
▁announ cement</w>
▁M al
w▁h en</w>
▁shar ing</w>
▁h op
▁Y e
▁acc ep
t es</w>
pro gr
i▁ ght</w>
ing ▁s</w>
inc o▁me</w>
ex pen
serv i▁ce</w>
est ab
ag ric
▁accoun ts</w>
s on
or d▁er</w>
hy ▁un</w>
fl ect</w>
as ty</w>
t y▁
r ing</w>
ou d</w>
es ter</w>
▁11 th</w>
▁&q▁u ot▁;</w>
li▁ fe</w>
▁r ental</w>
▁In dones
priv a▁te</w>
ecu tive</w>
▁un its</w>
▁maj ority</w>
1 5
▁l at
▁expec t</w>
m▁ ak
e▁ es</w>
M in
▁r ange</w>
▁Consid ering</w>
wh▁ at</w>
▁neg ative</w>
▁minis ter</w>
unic ip
stud en▁ts</w>
en▁ ter</w>
re pres
ac ked</w>
e ech</w>
▁main tenance</w>
▁l ibrary</w>
▁em ail</w>
per son</w>
igh tly</w>
ic ated</w>
▁restaur ants</w>
▁meas ure</w>
▁exp anding</w>
comp anies</w>
▁sch ol
▁recomm end</w>
▁Air port</w>
an y
us es</w>
l ight</w>
▁wor d</w>
▁coll ap
o▁ ur</w>
1 6</w>
▁discus s</w>
u als</w>
m il▁
le▁ ss</w>
▁f a
▁do or</w>
▁canc er</w>
m ea▁
end ly</w>
▁sup porting</w>
▁phot os</w>
▁brea k</w>
C▁ EO</w>
▁H u
th en</w>
sit u
o▁ wn</w>
ee ts</w>
2 1</w>
so▁ me</w>
ess ment</w>
dep end
re v▁
c ou▁ld</w>
ati cally</w>
as es</w>
▁l e
N▁ orth</w>
▁n ot
▁install ation</w>
▁foc using</w>
▁foc used</w>
eed ing</w>
▁z one</w>
▁pres ented</w>
▁pen sion</w>
incl▁ud ing</w>
cr im
▁pl aying</w>
▁br anch</w>
w eek</w>
▁contin ues</w>
mak i▁ng</w>
▁farm ers</w>
▁in conven
▁f oundation</w>
▁3 1</w>
us i▁ng</w>
ip ped</w>
▁w ide</w>
▁g ift</w>
por t▁
j ec▁ts</w>
ten tion</w>
ho▁ me</w>
er man</w>
ch it
c a▁re</w>
▁mon thly</w>
tici p▁
r ul
ell ow</w>
D em
pro▁ v
ar ious</w>
re▁ e</w>
ch ▁ed</w>
▁kn owledge</w>
▁Chung ch
▁2 2</w>
g ame</w>
el e▁c
▁wr ite</w>
▁sh ou
▁eff ective</w>
▁consum er</w>
▁suspec ted</w>
▁fac tory</w>
str eng
pol ▁
ot▁ al</w>
c ar</w>
an e▁se</w>
▁mean ing</w>
▁Ch r
▁u ng</w>
▁sup ported</w>
▁scre ening</w>
▁p ack
▁dis count</w>
▁counsel ing</w>
p▁ rov
h ar
▁ob jec
▁ex am</w>
▁e ating</w>
os s</w>
issi on
is su
c ul▁
M ay▁or</w>
.▁ m.</w>
▁ex ports</w>
▁19 8
vi ously</w>
bl ic</w>
▁u m</w>
▁heal thy</w>
▁Ph il
▁2 7</w>
bus▁ iness</w>
ar ou▁nd</w>
▁dem onstr
▁def ense</w>
▁d aughter</w>
i▁ st</w>
g g
▁1 5th</w>
s e▁n
▁n ine</w>
▁st ep
▁T able</w>
▁qu ite</w>
▁f os
▁H ee</w>
w ater</w>
ter ing</w>
▁Ch il
ta x</w>
en g</w>
p on</w>
▁spr ing</w>
▁lim its</w>
h igh
eal ing</w>
be▁ c▁
▁pic tures</w>
▁f ail
▁P a
▁st ocks</w>
▁in form
▁h imself</w>
▁coll ect</w>
i▁ p
igh▁ ts</w>
en tur
el ess</w>
den ly</w>
▁per f
▁mean ing
▁end eav
▁all ows</w>
y ong</w>
va▁ri ous</w>
ul ner
th ree</w>
en ch</w>
ed s</w>
c ent▁er</w>
▁special ized</w>
▁K i</w>
▁2 3</w>
with o▁ut</w>
vis ory</w>
h an</w>
Un iversi▁ty</w>
▁8 th</w>
▁201 3</w>
id e▁nt</w>
▁rap idly</w>
▁manag ed</w>
row▁ th</w>
ri es</w>
e▁ d
emb▁ ly</w>
▁sl eep</w>
▁res c
▁fl ight</w>
▁3 00</w>
ad minis
▁c h▁
t o▁rs</w>
hel p</w>
C T</w>
pr▁ es
S. -
se▁ l
i ew</w>
ffici ent</w>
ew ork</w>
▁sever e</w>
▁f ishing</w>
ov▁ er
b ly</w>
p▁ er▁
or d
▁K ak
ro te</w>
b ig</w>
a ug
▁sm art</w>
▁met ers</w>
or der</w>
o ad</w>
ab l▁e</w>
ir it</w>
con duc
or ies</w>
ac cor
▁th inking</w>
▁chang ing</w>
t oms</w>
▁t our</w>
▁Dep uty</w>
w▁ oo</w>
p▁ h
i▁ an</w>
▁2 1st</w>
s i▁ng</w>
a is
S u▁
▁pri or</w>
p▁ ro▁
h ow</w>
h ae</w>
▁sol di
▁believ ed</w>
▁B usiness</w>
▁12 th</w>
i▁n k</w>
g e
ur i▁ty</w>
C e▁n
▁s ongs</w>
▁S en
indus try</w>
C enter</w>
▁tr ust</w>
▁f al
▁M et
▁adv anced</w>
o▁ uld</w>
ov ement</w>
con s▁
▁warr ant</w>
▁s ym
r ement</w>
mo ti▁on</w>
in ated</w>
▁Gyeong sang</w>
r u▁
os an</w>
m a</w>
f our</w>
▁sett lement</w>
▁increa ses</w>
per s▁on</w>
t og
ag s</w>
7 0</w>
▁pos t
▁c o</w>
▁b rought</w>
▁advant age</w>
su per
d i▁s
as ing</w>
▁sur gery</w>
▁Y our</w>
tr a
a▁ tions</w>
▁re flect</w>
▁publ ished</w>
t ant</w>
▁trust ee</w>
▁fir s▁t</w>
▁del ay</w>
m i▁ll
g▁ r
em ▁s</w>
▁tax es</w>
▁p etition</w>
▁emphas ized</w>
▁des pite</w>
am ▁p
▁rel ations</w>
▁develop ing</w>
▁N ot</w>
▁B udd
p ar▁ty</w>
est ock</w>
ea▁ se</w>
▁tw ice</w>
▁conn ection</w>
▁att emp
▁H a</w>
c ri▁
, 5
▁St ar
c ol
▁mark eting</w>
▁al tern
▁Pen insula</w>
▁J ust</w>
prov ▁
▁concer n</w>
▁sub way</w>
▁plat form</w>
▁f ar
▁ex ternal</w>
▁2 7th</w>
yptoc urr
rup tion</w>
ri age</w>
i▁c s</w>
ic ul
▁in ▁
ti▁ ce</w>
sum m▁it</w>
ash ion</w>
anc ing</w>
▁tick et</w>
▁recor ded</w>
▁occ ur</w>
▁n orthern</w>
c tion</w>
▁ar ts</w>
▁adver tis
offic i▁al</w>
e▁ g
▁ob serv
▁gir l</w>
▁gen der</w>
meas ures</w>
ma j▁
b▁ een</w>
▁m eal</w>
▁cont ains</w>
ep tion</w>
b ody</w>
Coun c▁il</w>
▁’ ’</w>
▁Pro motion</w>
w oo</w>
▁spen d</w>
▁sc reen</w>
▁m ist
▁enterpr ises</w>
▁cl im
▁Un ion</w>
s ee</w>
c ing</w>
ad ed</w>
▁cont est</w>
a▁n k</w>
▁ar r
y r
y cl
ha▁ d</w>
▁pr elimin
▁avo id</w>
sp▁ec ial</w>
pr ac
D ong
▁rev ital
▁p aying</w>
▁R ules</w>
▁Ir an</w>
▁In t
▁G im
to▁ ok</w>
In v
▁B yung</w>
th▁ en</w>
mon y</w>
h es</w>
ff er</w>
e i▁gn</w>
▁revis ed</w>
▁disab ilities</w>
▁del eg
▁arriv ed</w>
▁O lymp
f are</w>
c andid
8 ▁
▁t ro
▁serv ed</w>
▁reven ue</w>
▁pro duce</w>
▁F l
ech n▁
▁grea tly</w>
▁E l
ver si
j▁ ect</w>
ic o</w>
▁s e▁
▁improv ing</w>
▁consum ption</w>
▁M ex
m a▁n
g res
ac ity</w>
▁sp ent</w>
▁fac tors</w>
▁bir th</w>
in▁ ed</w>
ep h
om p
▁enter ing</w>
▁Ch risti
▁ itan</w>
i ate</w>
2 4</w>
▁e p
res pec
m▁ ed</w>
fam i▁ly</w>
T h▁
▁endeav or</w>
▁an ti</w>
▁H all
im chi</w>
b illi▁on</w>
▁Kor▁ ea</w>
A c
▁t rees</w>
▁prom oting</w>
▁&a p▁os;s</w>
re ign</w>
h ee</w>
▁comp uter</w>
▁bus y</w>
▁M ountain</w>
m o▁n
▁ tion</w>
h▁ im</w>
M o▁on</w>
▁effici ent</w>
i▁ z
f ive</w>
R ep
▁M arket</w>
▁1 7th</w>
j i▁n</w>
den uclear
▁h ▁
▁di agnos
l▁ ow</w>
ag ▁es</w>
Ch ang</w>
▁requ ire</w>
▁ref und</w>
▁lec ture</w>
▁complet ely</w>
o▁r k</w>
m ar▁
i▁ a</w>
9 ▁
▁res ervation</w>
▁m id</w>
▁5 00</w>
▁there of</w>
▁broad cast</w>
an o</w>
▁Or ganiz
is▁ ion</w>
ch an▁ge</w>
▁car eer</w>
▁201 2</w>
d ire▁c
En g
▁2 5th</w>
j u▁st</w>
▁suffer ed</w>
▁f ish</w>
tit ude</w>
W or
▁week end</w>
r ying</w>
elec omm
▁dam aged</w>
si▁ ve</w>
▁bea uty</w>
tr i▁es</w>
gre di
el▁ l</w>
▁prof essor</w>
▁broadcas ting</w>
▁S ports</w>
s o▁n</w>
res t</w>
i a▁l</w>
ev e▁nt</w>
es sive</w>
▁th roughout</w>
pos es</w>
es t▁ed</w>
di ff
▁v ill
▁em p
▁elec tronic</w>
▁ o▁t;</w>
be▁ tw
▁un able</w>
▁decrea se</w>
v ey</w>
m ain</w>
▁suffer ing</w>
▁sp eak</w>
▁ordin ary</w>
o▁n t</w>
▁Mot or</w>
▁1 4
g▁ es</w>
o▁n al</w>
be▁ t
▁G w
re p
produc ▁ts</w>
be▁c ause</w>
pol iti
em ory</w>
ca▁ se</w>
S▁ t
▁victi m</w>
▁signific antly</w>
▁ser ve</w>
▁prepar ation</w>
in form▁
▁Em ployment</w>
eo k
ar▁ ds</w>
a h</w>
K RW</w>
▁perform ed</w>
▁l i
j▁ ob</w>
ith er</w>
ch ar▁ge</w>
ta ek</w>
su▁ l
n e</w>
1 7</w>
▁finis hed</w>
▁E un</w>
w er▁e</w>
▁war m</w>
▁fil ms</w>
▁activ ity</w>
p▁ ly</w>
l et</w>
j eong</w>
Ch airm▁an</w>
▁D ay</w>
▁cal cul
vi ews</w>
▁m os
▁chec ked</w>
ag ers</w>
▁pro por
ir▁ ec
h ouseh
f i▁n
b▁ u
▁U lsan</w>
▁C or
tur ing</w>
eo l</w>
S ch
Pro▁ v
▁foreign ers</w>
▁ass ets</w>
▁Q u
q ▁
oo ks</w>
n o
l evel</w>
comm ittee</w>
▁pi ec
▁inc urred</w>
▁F air</w>
▁m ountain</w>
n ame</w>
e▁ w</w>
com ▁e</w>
▁new sp
▁f ru
tro l</w>
p▁ eop▁le</w>
es▁ t
ag ▁ed</w>
▁mod ern</w>
▁in gredi
▁e ye</w>
▁concer ned</w>
wh a</w>
p ut</w>
h▁ av
▁c row
s ons</w>
Artic▁ le</w>
▁f r▁
▁coun ty</w>
▁s occer</w>
▁leg isl
▁F ederation</w>
prof ess▁or</w>
l arg
ir ae</w>
f oc
arm ac
▁j oin</w>
▁inten tion</w>
▁confir m</w>
l ines</w>
en om
▁t r▁
▁dro p</w>
n in▁g</w>
gen er▁al</w>
b usiness</w>
▁trans l
▁for ced</w>
ch i▁ng</w>
u▁ s</w>
▁enter tainment</w>
▁W ar</w>
▁9 th</w>
ta x
▁e d
c▁ y</w>
M E
▁r ose</w>
▁prelimin ary</w>
▁f alls</w>
tur ed</w>
pol i▁cy</w>
ff s</w>
a▁l l
▁join ed</w>
s▁ ocial</w>
oy ang</w>
k m</w>
em erg
▁f illed</w>
▁recru itment</w>
▁my self</w>
w ea
or▁ ld</w>
kno▁ w</w>
▁prof its</w>
▁lo ts</w>
▁kin ds</w>
say in▁g</w>
i▁ od</w>
b as▁
▁proc essing</w>
▁im possible</w>
▁W omen</w>
ong ly</w>
ilit a▁ry</w>
h▁ ee</w>
d▁ ong</w>
▁m ix
▁lawmak ers</w>
▁b all</w>
w ar
o▁ od</w>
▁fix ed</w>
▁D el
▁1 4th</w>
▁&apo▁s ;</w>
Jap ane▁se</w>
▁vol ume</w>
▁t op
▁prac tic
▁d eep</w>
▁ac tor</w>
b eh
G en
▁m ale</w>
il ▁e</w>
ign ed</w>
ear▁ ly</w>
▁V illage</w>
s▁ c
et er</w>
b ook</w>
▁sc ore</w>
▁hos ted</w>
▁ear n
▁bloc kchain</w>
e en
K▁ RW</w>
▁ven ue</w>
▁ap artments</w>
t▁h an</w>
ist ance</w>
d ly</w>
▁respec tively</w>
▁f oot
▁expec tations</w>
ma▁ in</w>
G w
▁sur pr
▁s i</w>
▁h usband</w>
▁N o.</w>
▁3 0th</w>
am p▁
B r
▁discus sion</w>
▁d ang
▁a th
lea d▁er</w>
i▁ st
b▁ r
▁dec line</w>
▁caus ing</w>
▁back ground</w>
in t</w>
atis tics</w>
1 4</w>
▁underst anding</w>
▁subsid ize</w>
▁ro oms</w>
▁13 th</w>
v▁ is
s▁h ould</w>
C om▁
▁w eight</w>
▁str ugg
▁in ev
▁Com plex</w>
u▁ l</w>
p ow▁er</w>
iter ia</w>
bo ard</w>
▁sugg ested</w>
▁ex clus
▁appro priate</w>
s ing
▁y oun
▁g ar
th rough</w>
ig n▁
d a▁ys</w>
▁C o</w>
s o
ili ar</w>
1▁ st</w>
▁strateg y</w>
▁dep uty</w>
wi▁th out</w>
ro▁ om</w>
ic ious</w>
b ec▁
Se ung</w>
▁N a</w>
▁Fac ebook</w>
ard less</w>
▁win ning</w>
▁pl ants</w>
▁m ulti</w>
ar ks</w>
▁proc eed</w>
▁dev ices</w>
▁cl aim</w>
▁t rou
▁do g</w>
▁ch ann
t e▁rs</w>
comp a▁n
op in
cooper ati▁on</w>
V ▁
▁nation wide</w>
r un</w>
in derg
fo▁ od</w>
▁sing er</w>
▁lea ving</w>
▁N av
t▁ ure</w>
▁rem ains</w>
▁believ es</w>
ye o</w>
ur y</w>
▁R ev
n ecess
▁foll ows</w>
▁budg etary</w>
▁ap prec
il m</w>
eg et
ea s▁
▁s il
▁rel ig
sib▁ le</w>
coun try</w>
be ing</w>
Ch in
▁lear ned</w>
▁di plom
▁bri ef
▁Rus sian</w>
pol icy</w>
el ong</w>
d▁ en</w>
▁wr it
▁st anding</w>
y ond</w>
y et</w>
et ers</w>
ch▁ er</w>
▁cor respon
▁S ou
▁J eon</w>
ur o</w>
st u▁d
l ar▁ge</w>
J e▁
▁wea k</w>
▁dis cipl
▁bro ther</w>
C o▁m
▁consid er</w>
f ree</w>
▁c alls</w>
▁2 8th</w>
or g
ig ning</w>
al ty</w>
▁l in
m ▁e</w>
e z
M ed
wit h▁in</w>
ove▁r n
is ▁h
c ept</w>
▁b i
▁S ong
▁2 6th</w>
memb ers</w>
Ad ministr
▁stor ies</w>
▁s un
▁happen ed</w>
und er▁
c u▁r
▁m ean</w>
▁anim als</w>
▁Des pite</w>
▁1 6
v e▁r
ol▁ l
ff▁ ice</w>
att le</w>
▁w earing</w>
▁ro ads</w>
R us
N ati▁onal</w>
▁s ource</w>
▁l isten
▁gr and
▁T ourism</w>
appl ic
▁conduc ting</w>
▁ch oice</w>
ol v
▁jud ge</w>
▁difficul ty</w>
pro▁ ve</w>
▁shar ed</w>
▁compl etion</w>
▁1 .
tr al</w>
oo gle</w>
og s</w>
d om</w>
a▁f t▁er</w>
ag o</w>
▁n ice</w>
▁Environ ment</w>
f a▁c
aem un</w>
▁l iter
▁b ag</w>
i ences</w>
w on
um n</w>
pro▁ duc
fin a▁ncial</w>
Ch o</w>
▁Ch eon
▁2 6</w>
n y</w>
g▁ un</w>
fir e</w>
en ge</w>
Y e
▁st able</w>
▁p re</w>
▁d inner</w>
▁Americ a</w>
r▁ eal
par t</w>
c el
▁r ob
▁In ter
go ing</w>
dis cus
c▁ ome</w>
▁expl ain</w>
▁de ep
tific ial</w>
l ook</w>
il▁ y</w>
buil ding</w>
a▁ ir</w>
▁k ept</w>
▁dec ide</w>
▁1 6th</w>
m em▁
im po▁r
b ri
▁iss u
th qu
i▁ ss
ex ▁p
▁con tribute</w>
▁&a pos▁;</w>
yn asty</w>
p▁l an</w>
▁th or
o▁ y
e ous</w>
▁w alk</w>
▁Wh ite</w>
▁Sing apore</w>
▁B i
us ▁e</w>
ot o</w>
med ium</w>
im p
▁H ave</w>
uc h
ic a</w>
des ign
▁w rote</w>
▁Br az
▁B ased</w>
tric ity</w>
m y
▁tempor ary</w>
▁cl ass
▁B ur
c il
▁d ead
vis it▁ed</w>
sch ed
ac qu
P en
▁Ch ang
▁2 8</w>
offic ial</w>
b▁ l
▁w ear</w>
▁meaning ful</w>
▁F ire</w>
i▁ rd</w>
▁t o
▁academ ic</w>
ra is
p at
c ustom
an c▁es</w>
▁volun t
▁loo ked</w>
▁In st
qual i▁ty</w>
m ul
i▁ me</w>
der ship</w>
ast es</w>
ar tens</w>
▁Se jong</w>
o▁ d</w>
om y</w>
▁ach ieve</w>
s▁ho▁ uld</w>
oti onal</w>
e tr
a▁n d
▁mis sing</w>
w at
t▁ ur
Metropol ▁itan</w>
▁con ver
▁bor n</w>
eval u
1 1
▁techn ologies</w>
▁se em</w>
▁depos it</w>
s▁t em</w>
jec ▁t</w>
il ian</w>
▁shar ehol
▁occ urs</w>
ty▁ pe</w>
t own</w>
▁wor ried</w>
▁l ived</w>
w▁h i▁ch</w>
s▁ up
l o▁ng</w>
d▁ uri▁ng</w>
S ung</w>
▁innov ation</w>
▁Ar t</w>
stitu tional</w>
p ast</w>
▁d ay
inv est▁
h a▁lf</w>
form s</w>
▁med icine</w>
▁g ets</w>
▁coun ter
um b
itt e▁e</w>
▁pati ent</w>
▁An aly
v e▁
▁hand le</w>
▁expen sive</w>
▁c over</w>
▁L ine</w>
offici a▁ls</w>
i ors</w>
inc rea▁se</w>
fl o▁or</w>
D o</w>
▁dis eases</w>
it▁ h
a▁ id</w>
▁opport unities</w>
▁fe eling</w>
▁comm ission</w>
tiv ity</w>
ter n▁
t aining</w>
stitu▁ te</w>
c ou▁n
ag r
▁sh or
▁W oo</w>
sy▁ st
gover▁n ment</w>
devel o▁p
▁in frastructure</w>
▁g old</w>
▁cons erv
r ent</w>
on ic</w>
f▁ ir
c oh
▁v ote</w>
▁represent atives</w>
▁ind ex</w>
▁decrea sed</w>
▁acc ept</w>
av es</w>
▁prom oted</w>
▁c ateg
▁H uman</w>
ay er</w>
&ap▁os▁; ll</w>
▁9 0</w>
pp ed</w>
▁cr iminal</w>
▁W ould</w>
sti c</w>
eor ological</w>
▁requir es</w>
▁ad mission</w>
yph oon</w>
r▁ eg
n ight</w>
mon▁ th</w>
maj▁ or</w>
ap s</w>
▁Prosec utors</w>
▁w el
r▁ i</w>
devel op▁
construc ti▁on</w>
▁t en</w>
▁cooper ate</w>
▁comp et
▁P re
▁P al
▁symp toms</w>
▁comp r
▁Ch urch</w>
inc r▁
fi▁ ve</w>
al s▁o</w>
pol i▁ce</w>
▁design ation</w>
al▁ l
J in</w>
Gyeo▁ng gi</w>
▁sh ort
entur y</w>
at e▁s</w>
ac▁ k</w>
ab ilities</w>
▁c at
m ut
in f
bu i▁l
▁f oods</w>
ug s</w>
l ot</w>
fo▁ ur</w>
b it</w>
▁v o
▁par liam
▁M yung</w>
o g</w>
e ti▁ng</w>
ci enti
yp e</w>
ain▁ ed</w>
▁w ind
ur i</w>
rou▁ p</w>
p e▁n
i▁n ess</w>
h wa</w>
con fir
▁L ife</w>
an ning</w>
▁se emed</w>
et▁ c.</w>
er ate</w>
▁res tor
▁app earance</w>
un d▁
s ex
pp er</w>
igh t
ch i▁l
▁subpar agraphs</w>
▁direc tors</w>
. 0</w>
▁s ides</w>
oc k
meas ur▁es</w>
devel ▁
▁smartph one</w>
▁rec on
▁off er</w>
▁d ead</w>
g h▁
▁respon d</w>
▁j ourn
▁gr ounds</w>
▁ch ea
▁judg es</w>
▁elec tions</w>
o▁ p</w>
ot es</w>
in ally</w>
T ae</w>
▁At tention</w>
w▁ ell</w>
t▁h is</w>
te▁ st</w>
pro mo▁
or th
n a▁m</w>
cla▁ ss</w>
a es
▁mer ch
▁aut onomous</w>
e▁ un</w>
eo s</w>
Jap an</w>
▁R ule</w>
es ti▁
do▁ es</w>
c itiz
▁offic ers</w>
▁f ol
resid ▁
pur su
jec ted</w>
fin anci▁al</w>
H an
▁pus h</w>
w▁ a▁s</w>
w in</w>
ri▁ ed</w>
▁s eat</w>
▁pain ting</w>
R eg
▁dev ice</w>
▁Un til</w>
▁Fr ance</w>
ou T
h ab
comm od
be▁tw een</w>
T echn
per for▁m
intro duc
g a▁me</w>
▁dig ital</w>
re duc
Bus▁ an</w>
w ar</w>
t ains</w>
le▁ ft</w>
s h</w>
▁charac ters</w>
ul atory</w>
u ven
l arge</w>
ist en</w>
c ultur▁al</w>
Univer sit▁y</w>
▁S ocial</w>
▁R oh</w>
▁G erman</w>
▁B ri
st ate</w>
S a▁m
s▁ec ond</w>
re tur
n at▁ional</w>
ex es</w>
en g▁
▁report ers</w>
▁interpre ted</w>
▁Y i</w>
id en▁t</w>
f ication</w>
8 0</w>
▁st opped</w>
▁cr iteria</w>
▁Tai wan</w>
we▁ en</w>
G u
&ap▁os▁ ;s</w>
▁A I</w>
o▁s s</w>
C it▁y</w>
&ap▁os;▁ ll</w>
▁n amed</w>
v id
unicip al</w>
sup port</w>
resid ents</w>
ex ecu
▁sh ape</w>
▁rul es</w>
▁independ ence</w>
▁b aby</w>
w are</w>
e w▁
ar▁ k</w>
▁w all</w>
▁Met eorological</w>
s▁ chool</w>
r an
par ticip▁
auth or
&a▁po▁s ;m</w>
▁any one</w>
mp ;</w>
f ast</w>
A ff
&a▁ mp;</w>
f ea
▁brea k
id ays</w>
ar ti
1 4
▁qu anti
▁k il
▁ab use</w>
w r▁
be fore</w>
are unm
am b
▁2 4th</w>
n orm
ess▁ es</w>
b▁ al</w>
Gover n▁or</w>
▁tour ist</w>
▁st yle</w>
t in
▁soldi ers</w>
▁i sn</w>
▁anim al</w>
ex hib
▁norm al</w>
▁farm ing</w>
▁competi tiveness</w>
▁Con f
z a</w>
k i</w>
c irc
a h
▁offic es</w>
▁injur ed</w>
▁Am id</w>
ro▁ ad</w>
por t▁ed</w>
en ever</w>
atur day</w>
A T</w>
▁som etimes</w>
▁r i</w>
▁lun ch</w>
▁dr ug</w>
▁K y
r▁ ef
ed n
be▁c aus▁e</w>
▁dr inking</w>
▁cr imes</w>
▁Mat ters</w>
▁1 ,000</w>
kno▁ wn</w>
es us</w>
el ines</w>
▁streng th</w>
▁E specially</w>
w omen</w>
t▁ es</w>
m▁ arket</w>
a▁ pp
▁sol ution</w>
▁cr yptocurr
▁caus es</w>
▁b a▁
▁acc ur
der ing</w>
▁s now</w>
▁civ ic</w>
▁appl ying</w>
Manag eme▁nt</w>
▁reti rement</w>
▁1 7
iti o▁n</w>
e e▁n</w>
aw ay</w>
al es</w>
▁Sm all</w>
par tic
m i▁n</w>
l ear
e f▁f
d ents</w>
ati▁ ons</w>
an▁ ds</w>
▁f an</w>
▁extr a</w>
▁ex ec
▁Y outh</w>
▁P ort</w>
ti m▁
A gric
▁2 3rd</w>
op h
om▁ en</w>
l▁ ea
i▁ ld</w>
facil iti▁es</w>
en tion</w>
en der</w>
Min▁ is▁
▁ren ew
▁S w
t ot▁al</w>
ic ro
ch arge</w>
all ey</w>
▁s u▁ch</w>
▁m oun
l ic</w>
g e▁t</w>
est ment</w>
d re▁
ch i▁ef</w>
amp ion
▁repor ter</w>
▁re view
▁fin ally</w>
▁experi enced</w>
▁clas si
wor ki▁ng</w>
d u▁r
c e▁r
f un▁
evel s</w>
▁volunte er</w>
▁shar es</w>
▁dis pl
st art</w>
la▁r gest</w>
▁r ail
▁oper ator</w>
▁beg in</w>
▁ass essment</w>
t▁ op</w>
r▁ ev
n▁ o</w>
l a
hy un</w>
N▁ ew</w>
▁urg ent</w>
▁cl early</w>
▁S ohn</w>
▁B TS</w>
im m
si▁ an</w>
h e▁r</w>
▁applic ants</w>
pos▁ ;t</w>
o▁ o</w>
in▁ es</w>
▁mean time</w>
vi▁ ew</w>
par t
n a▁
ic▁ ation</w>
▁argu ed</w>
y▁ ing</w>
th day</w>
on s
▁up on</w>
▁Hy e</w>
pol i▁
▁sud denly</w>
▁en ded</w>
t al▁
sec ond</w>
c oo
all eg
▁th er
th us
t able</w>
inform ati▁on</w>
be▁ st</w>
M ay</w>
▁U. S.-
t▁ ;</w>
iv▁ il</w>
▁ob tain</w>
▁aff ected</w>
▁S ea</w>
u ce</w>
is t▁
ine ering</w>
ic ide</w>
a▁ st</w>
▁v ia</w>
▁ac tors</w>
en t▁ed</w>
ef ully</w>
▁2 2nd</w>
ou te</w>
▁or ders</w>
▁fea tures</w>
▁complain ts</w>
s▁ y
id ▁e</w>
ec onom
▁sh op</w>
▁sec ured</w>
s eas</w>
r it
er ▁ed</w>
a▁n ge</w>
▁th rea
▁for ec
▁P ri
▁Indi a</w>
sen i▁or</w>
ev ▁er</w>
eas ▁e</w>
e up</w>
c enter</w>
am ic</w>
▁wal king</w>
▁syst ems</w>
▁Y u</w>
th▁ rou▁gh</w>
t a▁l
in nov
enom en
▁favor ite</w>
▁as king</w>
s▁ m
g row▁th</w>
▁m eat</w>
▁eff ort</w>
pu▁ blic</w>
pro m▁
o▁c k</w>
oc i▁
expec ted</w>
atten ti▁on</w>
app y</w>
p y</w>
S S</w>
wo▁ o</w>
som e▁
ec ti▁on</w>
▁expres s</w>
J u▁
▁w it
▁sc ale</w>
▁elec tricity</w>
▁coun ties</w>
▁Serv ices</w>
g ot</w>
H w
1 6
t▁h s</w>
stitu tion</w>
N am
▁M ovement</w>
w in
Hy un</w>
pers on
oy al</w>
law mak
er o</w>
▁r ain
tis h</w>
il ing</w>
▁st ated</w>
▁Sp eaker</w>
rea l
r ig▁ht</w>
Ch oi</w>
▁tick ets</w>
▁pl astic</w>
▁guarant ee</w>
▁Canad a</w>
ye o▁ng</w>
r▁ el
iti me</w>
in▁ a</w>
▁r ent</w>
▁d ri
▁app ear</w>
▁ab ol
▁S oo</w>
u ts</w>
he▁ e</w>
dis c
▁t ext</w>
▁res erv
▁camp aign</w>
▁c ell</w>
▁B as
vis▁ it</w>
op port
l y
en▁ g
c eme▁nt</w>
be▁t we▁en</w>
▁o ▁n</w>
▁mul ti
▁execu tives</w>
▁Gyeong sang
rec omm
p ons</w>
e a▁rs</w>
▁fig ure</w>
▁G oogle</w>
▁Ac tor</w>
w▁ ork</w>
su▁ b
m ilita▁ry</w>
investig ati▁on</w>
▁rem ember</w>
n eung</w>
me eting</w>
g en▁
entr▁ al</w>
&▁apo▁s ;</w>
▁surr ounding</w>
▁rep air</w>
▁cam era</w>
s ch▁
in ks</w>
S ang</w>
▁tas k</w>
▁Austral ia</w>
▁on es</w>
w▁ il▁l</w>
t▁h em</w>
st at▁
iti gation</w>
in fl
h ard</w>
e k
b i▁ll
re▁ sid
con tr▁
2 3</w>
▁grad ually</w>
▁g ives</w>
▁Mal ay
ten ed</w>
sm all</w>
ipp ines</w>
ar e▁as</w>
▁pr ison</w>
tic ally</w>
is cal</w>
hy u▁n</w>
▁sym b
▁pl eas
s oon</w>
o ong</w>
if th</w>
▁tit le</w>
▁Lea gue</w>
▁2 9</w>
u tr
th a▁n</w>
▁s quare</w>
▁inter esting</w>
▁ch icken</w>
▁st one</w>
▁chec king</w>
▁Mus eum</w>
▁respec t</w>
▁K o▁
▁/ /</w>
sit u▁
m id
a▁ tive</w>
▁B u
sur ▁
▁integr ated</w>
▁conc ept</w>
▁U S
ret a▁ry</w>
in clu▁
Ass embly</w>
▁youn ger</w>
▁sl ow
▁cou ple</w>
rea ding</w>
fam ily</w>
▁phot ograp
▁el se</w>
▁Coun ty</w>
thea st</w>
pa▁r t</w>
▁i ce</w>
▁cap acity</w>
say i▁ng</w>
f▁or mer</w>
e▁ an</w>
a▁ ti▁ons</w>
▁imm igr
pe▁ ople</w>
buil di▁ng</w>
ar di
▁u pper</w>
▁sub st
▁design ate</w>
v ehic
p▁ ut</w>
comp▁ an
▁sam ple</w>
▁pro per</w>
▁H eung</w>
p al</w>
o▁ und</w>
foll owi▁ng</w>
G overnment</w>
▁t ree</w>
▁expl an
m▁ ade</w>
g roup</w>
1 ,
▁m il
▁Fr ench</w>
diff▁ er
ati z
as ion</w>
P ubl▁ic</w>
▁ha ven</w>
▁Exper ts</w>
ou g▁h</w>
ong ol
f ur
A s</w>
▁sign s</w>
▁dou ble</w>
▁L aw
pro ject</w>
i ans</w>
c u▁l
at trac
▁wh e▁re</w>
▁N owon</w>
▁201 0</w>
yong yang</w>
i▁ th</w>
chil dren</w>
app ear
Se▁ oul</w>
▁semiconduc tor</w>
▁men u</w>
▁mach ine</w>
▁m ental</w>
▁m ag
▁liv estock</w>
▁for ces</w>
▁elec ted</w>
▁201 1</w>
ur s
pos ▁ed</w>
ou▁ t
l▁ ocal</w>
l ig
l eft</w>
ir es</w>
b ud
▁f ashion</w>
s ong</w>
pres s</w>
perform an▁ce</w>
oper ati▁on</w>
ft e▁r</w>
en vir
iz i▁ng</w>
ev e▁n</w>
ang ed</w>
▁suspen ded</w>
▁neigh bor
▁l iqu
▁dis play</w>
▁be yond</w>
▁O ther</w>
ac ted</w>
▁l isten</w>
▁experi ences</w>
▁del iver</w>
▁curr ency</w>
f▁ er
em o▁ny</w>
▁s in▁ce</w>
▁fir m</w>
▁b oy
▁P omp
▁Be fore</w>
p i▁ng</w>
as k</w>
▁exchang es</w>
fac tion</w>
d▁ y</w>
▁pun ishment</w>
▁Ear lier</w>
con n
a▁l ly</w>
an s▁
E n▁
2▁ nd</w>
▁th eater</w>
▁con st
▁compr ised</w>
&apo▁s ;▁s</w>
▁re ducing</w>
▁form ulate</w>
▁exc essive</w>
▁b ut
▁alleg ations</w>
me an
b it
▁sen ding</w>
ti▁ cs</w>
Y eong
▁u l
▁ship ping</w>
▁law s</w>
▁gu ide</w>
ul▁ ts</w>
ho▁ w</w>
c▁l ud
▁tal king</w>
▁sou thern</w>
▁pres entation</w>
▁S ch
o x</w>
me tics</w>
fi eld</w>
e▁ p
ar▁ t
▁max imum</w>
▁law suit</w>
▁guid ance</w>
▁dep artments</w>
▁c ul
▁c ore</w>
▁approv ed</w>
▁al bum</w>
im port
ag re▁
ad or</w>
▁re pres
▁passeng ers</w>
▁expen d
▁dam ages</w>
▁bal ance</w>
▁Rep ublic</w>
ne▁ ed</w>
l in
ent ually</w>
▁wat ched</w>
▁ref ug
▁notif ied</w>
▁des cri
w▁h ere</w>
work e▁rs</w>
s eason</w>
e t▁her</w>
P▁ ar
su▁ m
og ue</w>
M in</w>
▁acc um
▁T wo</w>
p yeong</w>
p a</w>
cl as
▁t een
▁inst all</w>
▁bas eball</w>
ev e▁ry</w>
el lec
▁viol ation</w>
▁v ulner
▁con struc
t echn▁
p ass
▁wor ker</w>
▁pro b
▁kinderg artens</w>
▁ingredi ents</w>
▁ad d</w>
ver▁ y</w>
u ti
iz e▁d</w>
ay▁ ing</w>
C orpor
▁w a▁s</w>
▁sc en
▁func tions</w>
▁cons ecutive</w>
ag ement</w>
▁th er▁e</w>
▁sub jects</w>
▁int elligence</w>
▁e x</w>
▁draw n</w>
▁col ors</w>
▁accep ted</w>
ill a</w>
est▁ ic</w>
1 7
pr▁ iv
indus t▁ry</w>
▁st and</w>
▁ar tificial</w>
▁In formation</w>
▁H otel</w>
on ally</w>
L e▁e</w>
L ea
▁view ers</w>
▁f o▁r</w>
▁H ospital</w>
ist an</w>
etropol it▁an</w>
▁trad ing</w>
▁se x</w>
w at▁er</w>
l a▁nd</w>
il▁l ion</w>
▁u ses</w>
▁regis ter</w>
▁M iddle</w>
▁In surance</w>
▁E ach</w>
c▁ on▁
L i▁
t▁ en</w>
it▁ ional</w>
ateg y</w>
&ap▁os; ▁s</w>
▁y ea▁r</w>
▁f ish
▁enh ance</w>
▁Super visory</w>
re p▁
el ec▁
Ch eong
▁cor rect</w>
▁M in
tr a▁
or e
l▁ aw</w>
d eb
b a▁ck</w>
a▁b out</w>
A c▁t</w>
▁C r
ne▁ w</w>
al l▁y</w>
Ass emb▁ly</w>
2 7</w>
▁m emory</w>
f▁ ac
▁am end
▁Mon day</w>
▁J esus</w>
pl▁ ay</w>
n ew
m as</w>
is s▁
cl ose</w>
▁3 5</w>
sh▁ ow</w>
prov i▁de</w>
ed ding</w>
con trac
comm itt▁ee</w>
▁F oll
z be
r▁ et
res ear
▁r ich</w>
▁continu ously</w>
thus i
t ar
Tr ans
▁c alling</w>
▁sp eech</w>
▁reg ardless</w>
▁inv est</w>
▁On ly</w>
w ee
un t▁il</w>
pro jec▁ts</w>
f oll▁
em pl▁
c▁ al</w>
adv ant
E D</w>
&▁apo▁s ;s</w>
▁t ▁h
▁independ ent</w>
▁con cluded</w>
▁altern ative</w>
l aun
inter e▁st</w>
au d</w>
▁g ather</w>
▁deb t</w>
▁E very
e▁c k</w>
S p▁
▁entr ust</w>
▁Th ose</w>
lo b▁al</w>
is sue</w>
▁see ing</w>
▁exc eed</w>
▁dem ocr
▁Th anks</w>
r▁ es▁
ma j
i ance</w>
con cer
T ▁h
▁s ister</w>
▁o r▁
▁D o
▁purch ased</w>
▁individ uals</w>
▁histor ical</w>
▁establish ing</w>
wh e▁n</w>
h▁ ard</w>
f a▁m
ead quarters</w>
c ong
▁fal se</w>
▁acc used</w>
▁Kor eas</w>
y▁ le</w>
Educ ati▁on</w>
▁rem ain</w>
▁dist ance</w>
▁comm emor
y▁ eon</w>
p en</w>
ca▁ me</w>
sti t
indus ▁
for t</w>
aj or</w>
▁out door</w>
▁n ames</w>
▁dis tributed</w>
▁deb ate</w>
th i▁rd</w>
pro d▁uc
gr y</w>
exp▁ ec▁ted</w>
▁ex cluded</w>
us▁ ic</w>
ant i</w>
▁plac ed</w>
▁5 G</w>
su▁p port</w>
necess a▁ry</w>
com▁ m
D ae</w>
s ent
og▁ y</w>
se▁l f</w>
serv ice</w>
r un
pos ing</w>
m▁ e
i able</w>
c er▁
▁s eas
▁mos tly</w>
▁Star ting</w>
p▁ s</w>
ospit als</w>
▁s ave</w>
▁pot ential</w>
l▁ ot</w>
distr i▁ct</w>
ang ju</w>
▁ph enomen
sum mit</w>
fi▁ nd</w>
f ou▁nd</w>
as t▁er</w>
D ay</w>
▁ass ault</w>
▁C oll
ph one</w>
P r
▁pus hed</w>
▁m ot
per form▁
o▁ t▁;</w>
im pl
fi▁ re</w>
▁t el
▁pre t
▁frequ ently</w>
B l
▁cryptocurr ency</w>
▁G ir
k e▁
ac ▁h
▁prac tical</w>
▁fres h</w>
▁com posed</w>
sh ow</w>
a▁ ting</w>
T C</w>
▁reflec ted</w>
ur ▁e</w>
ub s</w>
In stitu▁te</w>
▁war ning</w>
▁techn ical</w>
▁sent enced</w>
▁resid ential</w>
▁repor ting</w>
▁import ance</w>
und am
a▁ ch</w>
an am</w>
▁applic ations</w>
▁Indones ia</w>
on▁ d</w>
o f
comm unic
ac ▁e</w>
Se o</w>
▁pl en
▁con tr
▁aw are</w>
▁I T</w>
x im
s▁ pec
dro gen</w>
▁reg ulation</w>
▁discus sed</w>
us eok</w>
produc ts</w>
n a</w>
l as▁t</w>
is try</w>
▁transac tion</w>
▁dead line</w>
un ately</w>
k ▁e</w>
bl ▁e</w>
K yung</w>
wor ks</w>
t w▁
ol ic</w>
int▁ er
ei▁ r</w>
ea l▁th</w>
A ss▁
▁fl ex
▁disp ute</w>
▁J ud
▁G oyang</w>
wor▁ k</w>
l e
f e
▁exten ded</w>
▁Bri tish</w>
t▁ ax</w>
n a▁me</w>
le▁ ad</w>
c▁ r
a▁ se</w>
3 0
▁G eum
s atis
h▁ a▁s</w>
g▁ o</w>
d▁ i
air ▁
▁t own</w>
▁cam p</w>
su▁ re</w>
▁v eget
▁be hav
▁S ub
▁K T</w>
▁2 9th</w>
w▁ ere</w>
t▁ ee</w>
qu ir
ok yo</w>
oc ▁al</w>
id den</w>
g i▁
▁r ural</w>
▁d e▁
▁I tal
un t</w>
s ea
o▁ v
iv ision</w>
f ying</w>
▁l ose</w>
tiv ▁e</w>
b ok</w>
▁A fr
ut ers</w>
th o▁se</w>
▁convers ation</w>
▁c over
▁G ames</w>
p eo▁ple</w>
m other</w>
let es</w>
S p
C o▁
▁conn ected</w>
▁ar rive</w>
sal ▁es</w>
iber ation</w>
▁pre fer
▁en forcement</w>
▁con v
ut u▁re</w>
m▁ ore</w>
j ud▁
h alf</w>
d ate</w>
a▁l so</w>
G un</w>
▁l evels</w>
▁discus sions</w>
▁J oon</w>
represent ati▁ve</w>
includ ing</w>
f all</w>
sp e▁c
ou p</w>
o oting</w>
ea▁ ce</w>
an d▁ed</w>
am ily</w>
▁l isted</w>
▁T em
o▁m en</w>
f ic</w>
e▁n tial</w>
coh ol</w>
b a▁ll</w>
G▁ yeong
▁prosec utor</w>
▁Fr iday</w>
▁Analy sts</w>
wh y</w>
ep ren
b i
▁tas ks</w>
▁f air
▁dr aw</w>
o▁ ther</w>
2 8</w>
▁out standing</w>
▁at tract</w>
n u▁
ed er
b▁ an</w>
aud i</w>
▁en try</w>
▁d rea
▁con ▁
▁c ▁
▁ass ociation</w>
▁I l
s al</w>
ro ad
d▁r en</w>
ain t
Y oo</w>
▁th ous
▁t ired</w>
▁suspen sion</w>
▁join tly</w>
▁Organiz ation</w>
u▁ ce</w>
tric ts</w>
S tr
▁lea dership</w>
▁enjoy ed</w>
▁e co</w>
▁corpor ations</w>
▁b ic
▁Mex ico</w>
itiz en</w>
it ting</w>
ap ers</w>
Min▁is▁ try</w>
G overn
▁r an</w>
s afe▁ty</w>
i▁s it</w>
▁subsid y</w>
▁sh r
▁m ark</w>
w ol</w>
offic ▁
id enti
i o▁us</w>
▁resol ve</w>
▁fl o
▁dest ro
▁bro ken</w>
sh op</w>
rec▁ e
if f</w>
▁syst em
▁sent ence</w>
▁reg ard</w>
▁rec overy</w>
▁newsp aper</w>
▁fl ow</w>
or ation</w>
Y ong</w>
▁suspec t</w>
▁recomm endation</w>
▁re ply</w>
▁r oute</w>
▁n om
▁judg ed</w>
▁co ast</w>
develop ment</w>
O ffic
▁with draw
▁ap p</w>
pursu a▁nt</w>
de▁ v
as▁ s
H an</w>
▁suspic ion</w>
at ched</w>
ar ity</w>
ad ded</w>
t ;</w>
proc ess</w>
m i</w>
ig▁ h</w>
h ou▁se</w>
fac ▁
chit ec
c o▁r
an▁ ies</w>
▁l ines</w>
▁Hall yu</w>
w a▁rd</w>
l ate</w>
airper s▁on</w>
▁l oved</w>
▁adver ti
y a▁ng</w>
it ch
O ffice</w>
▁transac tions</w>
res sed</w>
p▁ ay</w>
o f▁
inter ▁
he▁ re</w>
▁b u▁t</w>
y o▁ng</w>
adem y</w>
n e▁ss</w>
▁str ongly</w>
▁s yn
▁rece ives</w>
▁i sland</w>
▁finis h</w>
▁canc el</w>
re▁ al</w>
e▁c t▁ed</w>
a▁t a</w>
ad diti
▁trans ferred</w>
▁th anks</w>
▁subpar agraph</w>
▁grad es</w>
▁fl owers</w>
▁f ▁
▁ev ening</w>
▁ess ential</w>
▁effici ency</w>
▁Foll owing</w>
inc es</w>
▁mus eum</w>
▁cour ses</w>
▁aim ed</w>
▁C C
o▁ u</w>
or ig
3 1</w>
201 9</w>
▁equ ipped</w>
▁entr ustment</w>
▁eff ec
receiv ▁ed</w>
me▁ ans</w>
e▁r ▁e</w>
e▁ ven</w>
emb ers</w>
at ri
▁min ute</w>
▁ma il</w>
▁certif ication</w>
s ol▁
par tic▁
me a▁ns</w>
ME s</w>
C▁h o</w>
ri er</w>
med ic▁al</w>
i et</w>
ea s▁ed</w>
▁un i
▁tr ack</w>
▁bl ue</w>
us ual</w>
edn esday</w>
at tr
▁comm itted</w>
u▁m p</w>
p ati
f▁ it</w>
at ures</w>
▁rap id</w>
▁r um
▁quanti ty</w>
▁mar riage</w>
▁discipl inary</w>
row n</w>
re▁ as
am m
19 ▁
▁sal ary</w>
▁m ur
▁l itigation</w>
▁judg ment</w>
ro▁ up</w>
okes man</w>
for ei▁gn</w>
▁s etting</w>
▁ob tained</w>
▁im posed</w>
▁ad ding</w>
▁En ergy</w>
▁C ar
par ed</w>
and al</w>
B usan</w>
▁doc tor</w>
▁X i</w>
▁Wh ich</w>
▁Ap ple</w>
u an</w>
t▁ im
tea▁ m</w>
ol l</w>
in k
Un iversity</w>
▁wor ▁
▁sup plem
▁over come</w>
▁inter ests</w>
▁fin ding</w>
qu ar
oh ang</w>
ex ec
co▁m m
V iet
Se ong
▁m anner</w>
▁Phil ippines</w>
▁ ju</w>
z en</w>
t en▁
st o▁ry</w>
per i▁od</w>
ot▁ her</w>
l ive</w>
i ents</w>
fo▁ reign</w>
a▁ ke</w>
▁st ations</w>
▁s tic
▁An other</w>
▁20 s</w>
is ure</w>
▁c o▁n
▁atten ding</w>
▁On ce</w>
ul f
manag▁ ement</w>
m ent▁al</w>
al o▁ng</w>
P er
▁run s</w>
▁concentr ation</w>
▁attrac ting</w>
▁S aturday</w>
elec tion</w>
G y▁
▁Chil dren</w>
▁200 9</w>
investig ation</w>
f▁ orm
ev e▁r</w>
d om▁
d ata</w>
tak ▁e</w>
exper ien▁ce</w>
b eg▁
an y▁
ag▁ ainst</w>
▁tr uth</w>
w ise</w>
s▁h a▁ll</w>
in▁ al</w>
▁shar p</w>
▁child care</w>
w▁ in</w>
u al▁ly</w>
fun c
ail and</w>
▁id eas</w>
sel ect▁ed</w>
op ▁e</w>
ib ility</w>
cons ult
K y
▁sp ot</w>
▁resc ue</w>
▁fir ms</w>
▁announ ce</w>
ta i▁n
per iod</w>
p ay</w>
d▁ le</w>
d an▁ce</w>
▁affili ated</w>
o▁n ly</w>
e▁x p
en d▁ed</w>
e ver
e ering</w>
▁poll ution</w>
m▁ s</w>
ent a▁ry</w>
S▁ .</w>
I N
2 00</w>
▁confir mation</w>
▁Rep .</w>
▁H eadquarters</w>
or t▁h</w>
ex per▁
▁lic ense</w>
▁Se ong</w>
▁Pomp eo</w>
▁Chr ist
▁B aek
i▁ ded</w>
id▁ ent</w>
a▁ ve</w>
Y oon</w>
▁p sych
▁mod els</w>
▁ag ed</w>
▁B aek</w>
prov inci▁al</w>
p op</w>
o▁w s</w>
▁w ages</w>
▁dr unk</w>
▁car rying</w>
▁P eace</w>
▁A ud
vol un
i▁ nd</w>
fer en▁ce</w>
epren e
U n▁
▁sl ightly</w>
▁compet ent</w>
is▁ ts</w>
dec id▁ed</w>
atten d▁ed</w>
▁de ems</w>
k▁ er</w>
T a
▁ev entually</w>
▁W est</w>
▁plan e</w>
▁disclos ure</w>
▁del icious</w>
▁bel ong
▁Med ical</w>
pen s
fr on
ci▁ l</w>
Ch▁ in
▁vulner able</w>
▁trea ted</w>
▁star s</w>
▁s af
▁o kay</w>
▁lat est</w>
u▁n e</w>
s oci
it or
ab led</w>
▁mix ed</w>
under st
g▁ ood</w>
w▁h at</w>
t ingu
res ear▁ch</w>
m er
c▁ omm
ash ing
In t
▁un d▁er</w>
▁c entury</w>
u▁ ed</w>
ir ation</w>
employ ment</w>
Chung ch
▁s eek</w>
▁mar ried</w>
▁hel ps</w>
▁f ight</w>
▁d ▁
h▁ ere</w>
cr aft</w>
▁proced ure</w>
▁ex tent</w>
ell o</w>
d e▁d</w>
▁m ayor</w>
▁lawmak er</w>
▁bott om</w>
▁Kak ao</w>
si x</w>
s epar
em ical</w>
▁b ull
techn olo▁gy</w>
▁s inc
▁ear thqu
▁car eful</w>
▁H er
▁2 ,
t og▁
g▁ lobal</w>
Jap▁ an</w>
; ▁
▁pro spec
▁R yu</w>
▁Pro ject</w>
v i▁c
perc e▁nt</w>
l a▁te</w>
grow th</w>
f▁ or▁
e▁ st▁
▁p utting</w>
▁hom es</w>
▁Pyeong taek</w>
r em▁
m i▁t</w>
in te▁r
id e▁d</w>
f arm
c ulture</w>
▁stat utes</w>
▁sh ot</w>
t▁ ern
clud e</w>
be▁c▁ ause</w>
K▁or e▁a</w>
▁c ooking</w>
st a▁r
p ur▁
g▁ o
▁min im
▁b ags</w>
shi▁ p</w>
er▁ gy</w>
c ar▁
as ts</w>
▁politi cs</w>
▁exper t</w>
tr a▁de</w>
ou ldn</w>
n eed</w>
▁sp irit</w>
▁S audi</w>
pr▁ om
och o</w>
i▁n g
h w▁an</w>
▁propor tion</w>
▁encour age</w>
▁Budd h
v i▁ng</w>
um ed</w>
c anc
S un</w>
▁ran ked</w>
▁comm ents</w>
▁applic ant</w>
▁M y
▁M ongol
s▁ ity</w>
reg ul▁ar</w>
fr o▁nt</w>
c▁ rea
M ar▁
▁stor age</w>
▁hel ped</w>
ub▁ lic</w>
stit utes</w>
m▁ ake</w>
ic▁ y</w>
hel▁ d</w>
et in▁g</w>
as ters</w>
▁str ess</w>
▁pri ority</w>
▁happ en</w>
▁fail ure</w>
▁conserv ative</w>
▁Se ok</w>
u tions</w>
av el</w>
▁su itable</w>
▁p ower
▁brief ing</w>
▁att ack</w>
▁Th ree</w>
ol es
j e▁c
i▁ sh
aw ei</w>
F ac
4 5</w>
▁val ues</w>
▁emerg ing</w>
▁arti cles</w>
▁B ar
▁1 0,000</w>
t ec
r ban</w>
▁vid eos</w>
▁hol idays</w>
um▁ an</w>
e▁ ad</w>
bo▁ th</w>
armac eu
H ong</w>
▁t yphoon</w>
▁g olf</w>
expres s▁ed</w>
e b▁
ar eness</w>
an t▁s</w>
Gyeong sang
▁bus es</w>
▁Sing er</w>
p▁ eopl▁e</w>
ind▁ us
in o</w>
h um
▁com fortable</w>
▁b ed</w>
▁ab s
ugg ish</w>
si on
serv ▁
pre▁ ss</w>
pr in
m u▁ch</w>
ac h▁ed</w>
▁rul ed</w>
▁predic t</w>
▁gr ant</w>
▁expend iture</w>
Gyeong g▁i</w>
C l
▁kinderg arten</w>
▁S e</w>
w a▁r
o k▁
n▁ el</w>
an aly
▁perform ing</w>
▁offer ed</w>
▁b ▁y</w>
▁ac compan
v e▁ry</w>
i eld</w>
Sam su▁ng</w>
▁c l▁
▁ag ing</w>
t▁ eam</w>
resp on▁
clus ion</w>
▁p ort</w>
▁canc eled</w>
uc tion</w>
on able</w>
j o</w>
h e
ad y</w>
K ang</w>
Comm ittee</w>
A s▁
s ocial</w>
ol den</w>
ag g
S pec
▁st ar</w>
▁fea ture</w>
▁R el
▁En ter
▁19 7
3▁ rd</w>
2 5
▁jud icial</w>
▁inconven ience</w>
▁&a pos;
wor d</w>
unic ations</w>
t▁w een</w>
ip e</w>
chil dr▁en</w>
▁prem ium</w>
▁o bl
▁Sun day</w>
▁Cheon an</w>
sign ific
nam ese</w>
me▁ et</w>
c▁ om▁
al ize</w>
I m
▁m aster</w>
g ang</w>
att e▁rs</w>
▁rea dy</w>
▁r ule</w>
▁Jeoll a</w>
f av
eff ec
▁h ospitals</w>
▁amend ment</w>
v o
hous i▁ng</w>
▁sp ea
▁organiz e</w>
t▁h ▁e</w>
st▁ ud
mak er</w>
i▁ tion</w>
diff▁ ic▁
d ea▁
activ ▁
S outh</w>
Je ju</w>
▁complain t</w>
▁Ko▁ rea</w>
pur ch
pl a▁ns</w>
our self</w>
e t▁ed</w>
b al
W or▁ld</w>
P ri▁
▁dis hes</w>
▁am id</w>
▁ac commod
▁H ae</w>
t▁ ers</w>
n atur
h old</w>
▁stud ies</w>
▁m ob
▁fin ance</w>
▁cos metics</w>
▁K OS
▁Econom y</w>
al i
C ou▁rt</w>
3 5</w>
▁sit u
▁par ti
▁emerg ed</w>
▁cl in
▁In d
on l▁y</w>
il ot</w>
es s▁ed</w>
Res ear▁ch</w>
▁recogn ition</w>
▁identi fied</w>
▁contrac ts</w>
▁an x
w▁h y</w>
un j
perform ance</w>
i▁ re</w>
▁strength ening</w>
▁c enter
oc▁ r
ij ing</w>
ati v▁e</w>
at e▁ly</w>
▁lec tures</w>
▁Mot ors</w>
▁Ar ti
qu esti
op ol
od ies</w>
▁rem ov
▁l ov
▁h owever</w>
m ob
in ati▁on</w>
com p▁l
Y ang</w>
▁ag ree</w>
ti ous</w>
r ad
oc ation</w>
is su▁
e ti▁
al ent</w>
▁th ank</w>
▁re fer
▁offic ially</w>
▁mus ical</w>
▁V en
▁T eam</w>
p un
ic▁ le</w>
f eel</w>
▁wea k
▁mon it
▁fig ures</w>
w▁h ile</w>
p ot
a▁ tio▁ns</w>
J u▁ng</w>
2 6</w>
&▁a p▁os;s</w>
▁grow n</w>
▁bloc k</w>
▁allow ances</w>
▁D ru
▁Bo ard</w>
under▁ st
s onal</w>
m▁ ark
e▁ ld</w>
as an</w>
sur y</w>
ro▁ le</w>
re▁c e
pol ice</w>
l▁ i
iv i▁ng</w>
ig ▁n</w>
et te</w>
d id</w>
art ups</w>
L oc▁al</w>
▁re ward</w>
▁natur ally</w>
▁main tained</w>
▁cons ulting</w>
▁be er</w>
▁Y ouT
▁J oo</w>
▁H o</w>
t▁ ak
th i▁ng</w>
t om
os ▁e</w>
l ove</w>
it es</w>
foll owing</w>
ent ally</w>
av ing</w>
▁real ize</w>
▁: :</w>
y▁ o</w>
v ious</w>
tr ea
ro▁ u
ec onomy</w>
as s▁
▁phenomen on</w>
▁G or
proc e▁ss</w>
in▁ ue</w>
enti ment</w>
det erm
ch e▁
▁wor ry</w>
▁ba▁ sed</w>
st y▁le</w>
h▁ it</w>
ed om</w>
an▁ s
activ iti▁es</w>
T r▁
P▁ op</w>
Pres▁ ident</w>
▁Sh im</w>
w a▁y</w>
ti▁ cle</w>
at▁ ing</w>
▁parliam entary</w>
▁Ar ts</w>
x es</w>
us h
s ized</w>
on ce</w>
invest me▁nt</w>
fo▁r mer</w>
e ducation</w>
b y
▁institu te</w>
▁don ation</w>
▁differ ences</w>
▁D ynasty</w>
t▁h ey</w>
s un▁g</w>
m▁ et</w>
li o▁n</w>
ed y</w>
av o
am ▁es</w>
▁ref ers</w>
▁l i▁
s cor
port ers</w>
ner ship</w>
i▁ se</w>
f air</w>
ch a▁r
M▁ ay</w>
1▁ 0</w>
▁Y eon
ordin ate</w>
e ys</w>
▁pro hib
▁perf ect</w>
▁he▁ ad</w>
▁W estern</w>
▁N ews</w>
sel ▁
o▁ ur
kn own</w>
g ence</w>
et▁ y</w>
bir th</w>
at e▁
▁app ears</w>
▁P as
▁200 8</w>
ho▁ on</w>
g i▁ve</w>
▁unf air</w>
▁di verse</w>
▁d rive</w>
▁achiev ed</w>
s .</w>
per ty</w>
o▁u gh</w>
er ea
Chin e▁se</w>
▁re b
▁f oot</w>
▁ep is
▁Gang neung</w>
st ore</w>
p aid</w>
on er</w>
o b▁
l ong
c ultu▁re</w>
aug ur
▁sp reading</w>
▁dem anded</w>
▁bu ying</w>
▁P yongyang</w>
u▁ es</w>
mon ey</w>
ea l▁ed</w>
as ted</w>
▁c ool</w>
▁C ong
icul um</w>
d el▁
ac coun
▁h urt</w>
▁for um</w>
z z
m atte▁rs</w>
c a▁r
. 0
▁sur face</w>
▁re organiz
▁pas sing</w>
▁g un</w>
▁Pa ju</w>
w a
ang ing</w>
▁w oul▁d</w>
▁con tributed</w>
▁Chungch eong</w>
re ds</w>
ed eral</w>
201 6</w>
▁st atistics</w>
▁inv ited</w>
▁ab▁ out</w>
▁Han wha</w>
▁Braz il</w>
rel ev
pr▁iv ate</w>
jo▁ bs</w>
N a▁
▁attrac ted</w>
o▁r th</w>
manag ement</w>
il at
g y
ess ors</w>
ari ffs</w>
▁effici ently</w>
▁a id</w>
uc ks</w>
on ial</w>
ai▁r m▁an</w>
▁j ustice</w>
▁aw arded</w>
pr o▁m
oc ked</w>
ap o</w>
T A</w>
▁w asn</w>
▁sk y</w>
▁orig inally</w>
tor ▁s</w>
e▁c ted</w>
d▁ ec
b▁ ed</w>
ar r▁
an ak</w>
F ound
▁sl ow</w>
▁respon dents</w>
▁guid elines</w>
▁claim s</w>
▁car ds</w>
▁A ut
y▁ u</w>
su gg
i▁n gs</w>
ill eg
il s</w>
e▁l op
bas ed</w>
C or
6 5</w>
▁won der</w>
▁o ▁
tiv ▁
lis t</w>
j oi▁nt</w>
e▁r ed</w>
c a▁l
activ ities</w>
1▁ 00</w>
▁obl ig
▁im ported</w>
▁go als</w>
▁em b
▁auth or</w>
▁F ilm</w>
v ill
el ings</w>
dom est▁ic</w>
air ▁s</w>
▁sec tors</w>
▁ath letes</w>
▁J un</w>
rec ent▁ly</w>
op en</w>
a ight</w>
E conom
▁pat h</w>
▁exec ution</w>
▁C ivil</w>
pl a▁n
l igh
N▁ ational</w>
▁t ea</w>
▁comp ly</w>
▁O kay</w>
y ed</w>
w elfa▁re</w>
ust ain
or▁ ts</w>
increa s▁ed</w>
i os
en▁ ds</w>
c▁ ase</w>
c amp
b ack
ar eas</w>
Or d
201 7</w>
▁l ux
▁benef it</w>
▁b ▁
z ▁ed</w>
u▁ sed</w>
sti t▁
promo▁ te</w>
ach ing</w>
P yeong
H o▁ng</w>
▁s un</w>
▁pre gn
▁Viet namese</w>
▁K o</w>
▁G iven</w>
re▁ ad</w>
p eopl▁e</w>
ig n▁ed</w>
e b</w>
▁w▁ ith</w>
▁fr anch
i ers</w>
g▁ ue</w>
ath e▁r</w>
S m
2 9</w>
▁s ear
▁requ ests</w>
▁or▁ der</w>
▁crea tive</w>
▁c overed</w>
▁D oes</w>
ra▁ p
prov ince</w>
ou s▁
a f▁f
▁n early</w>
▁low est</w>
▁Olymp ics</w>
ti le</w>
l ab▁or</w>
i▁ d</w>
id ity</w>
ic ed</w>
h on
f ail
exc e▁
an der</w>
H ee</w>
▁rem arks</w>
▁b ills</w>
▁af ter
▁H ea
▁G eun</w>
▁A ll
o▁r m</w>
n etw
l ov
i▁t tee</w>
▁vo ices</w>
▁m outh</w>
▁dis posal</w>
▁G lobal</w>
▁Christi an</w>
o▁ ve</w>
m e▁n
la▁ ted</w>
il d
▁kn ew</w>
▁coll abor
▁b an
i ums</w>
S T</w>
▁t ests</w>
▁d ea
▁&ap▁os ;</w>
in▁ g
g▁ er</w>
ay in▁g</w>
▁th in▁k</w>
▁dro pped</w>
▁dri vers</w>
▁disp atched</w>
▁ad ults</w>
▁Agric ultural</w>
wor king</w>
nam ent</w>
c▁ ar</w>
at u▁re</w>
▁20 20</w>
tr aini▁ng</w>
s▁ ti
pr i▁ce</w>
ge▁n eral</w>
S ing
K i</w>
3 2</w>
▁p eti
▁i gn
▁br ands</w>
▁ar my</w>
u▁ ps</w>
s ee
l ead
im b
ho▁ ur</w>
4 ▁th</w>
▁aw areness</w>
▁Tem ple</w>
y in▁g</w>
sum er</w>
r ▁e</w>
ol▁ ds</w>
i e▁n
f it</w>
comp reh
bass ador</w>
W h
Aff ai▁rs</w>
▁vic tory</w>
▁pret ty</w>
▁oper ators</w>
▁commer ci
diff▁ic▁ ult</w>
at in▁g</w>
D irec
▁he▁ ld</w>
▁N ext</w>
p▁ol icy</w>
jus ▁t</w>
bec o▁me</w>
▁conven ient</w>
▁compl exes</w>
tw▁ o</w>
s ay</w>
com b
P▁ rov
F A</w>
▁m ▁
▁govern ed</w>
z es</w>
k il
f▁ r
app▁ ly</w>
▁supervis ion</w>
▁app eal</w>
▁Th ailand</w>
▁H ak</w>
▁E very</w>
w age</w>
b on</w>
▁cro ss
▁cooper ative</w>
tim es</w>
re▁ ase</w>
l abor</w>
incl▁ud i▁ng</w>
in come</w>
e▁ al
▁smo oth</w>
sub sid
m at▁ch</w>
i e▁d</w>
administr ati▁on</w>
▁schol ar
▁s igning</w>
▁inev itable</w>
▁hy drogen</w>
▁g ain</w>
▁f arm</w>
og r
k e▁d</w>
g ive</w>
▁un cer
▁inv ested</w>
▁dec or
▁chall enge</w>
▁H ar
o d▁
g▁ row
gr▁ am</w>
establis h
▁innov ative</w>
▁T okyo</w>
crim ination</w>
D ef
Ch▁in ese</w>
▁w il▁l</w>
▁public ly</w>
▁cul tiv
▁canc ell
ther wise</w>
me▁ d
ic ▁s</w>
am ework</w>
9 0</w>
▁us age</w>
▁sh oes</w>
▁fac tor</w>
▁f ifth</w>
▁explan ation</w>
▁e sc
▁cont aining</w>
▁R ights</w>
▁Christ mas</w>
w it▁h
it▁ e</w>
c and
▁r out
▁no tic
▁cor ruption</w>
▁b ▁e</w>
▁2 5
ym ore</w>
rec e▁
lik ▁e</w>
j ae</w>
for ▁e</w>
c an
at▁ ive</w>
▁requir ements</w>
▁law yer</w>
▁ ati▁on</w>
v e▁n
und reds</w>
ow e▁r</w>
f▁ ri
H igh</w>
▁adv ice</w>
▁ac ting</w>
ol s</w>
j eon</w>
g▁ u
f am▁
adminis tr▁
▁sm all
▁relig ious</w>
▁pay ments</w>
▁im ages</w>
▁apprec iate</w>
▁10 0,000</w>
se▁ ok</w>
is ition</w>
enti a</w>
I S</w>
▁m and
▁S NS</w>
▁G al
thr▁ ough</w>
t alk</w>
t a</w>
ro l</w>
pres i▁d
m▁ ed
cer emo▁ny</w>
M a▁r
▁comb ined</w>
▁b and</w>
▁ass et</w>
or r▁y</w>
ne▁ ar</w>
ib▁ le</w>
g lob▁al</w>
comm un
az a</w>
I ▁t</w>
. 5
▁v i▁sit</w>
▁smartph ones</w>
▁m e▁
▁competi tive</w>
l i▁ng</w>
e on▁g</w>
as▁ te</w>
▁w ake</w>
▁dr ugs</w>
▁confl icts</w>
▁H was
ci t▁
▁wor se</w>
▁wh om</w>
▁resear chers</w>
▁pic k</w>
▁m ill
▁evalu ated</w>
▁d ogs</w>
▁alleg ed</w>
spec ial
con stru▁c
b▁ efo▁re</w>
bo▁ dy</w>
bor n</w>
b e▁r</w>
▁sw eet</w>
▁sim ply</w>
▁ex posed</w>
▁ch ose</w>
▁car efully</w>
▁L aw</w>
zbe k
s▁ um
is h▁ed</w>
f ar</w>
d eg
cl aim
R e▁
▁teen agers</w>
▁p age</w>
▁g ained</w>
▁3 1st</w>
the▁ m</w>
pr ice</w>
p h▁
om b</w>
iz ▁ation</w>
ch ang</w>
V ice</w>
M e▁
▁eas ier</w>
▁b onds</w>
mi▁ ss
if ying</w>
for ce</w>
ea▁ d</w>
▁w o▁uld</w>
▁su icide</w>
▁p ▁
▁H ere</w>
▁A si
stud ▁
st u▁
d▁ es
diffic u▁lt</w>
b e▁rs</w>
Y ong
Je oll
▁wh enever</w>
t o
st a▁
qu e</w>
fo▁r m
▁sl uggish</w>
▁dec laration</w>
w er</w>
relev a▁nt</w>
n ecessary</w>
m ark</w>
▁dis tricts</w>
▁beg un</w>
tu p</w>
m il
i▁ r</w>
ann i▁ng</w>
a ud▁
▁str ike</w>
▁star ts</w>
▁ref er</w>
▁g rew</w>
▁M i</w>
▁Inv estment</w>
won do</w>
stand i▁ng</w>
prov in▁ce</w>
op▁ en</w>
ok i▁ng</w>
m is▁
isten ce</w>
ind ivid
3 00</w>
▁clean ing</w>
ong no</w>
j obs</w>
em▁ ber</w>
ad es</w>
S ou
▁r iver</w>
▁M e
▁ at▁ion</w>
or ▁ed</w>
l▁ ing</w>
ist ant</w>
hy e</w>
ens us</w>
ee d▁ed</w>
a▁c y</w>
all en</w>
▁tal ent</w>
▁m eals</w>
▁fl ower</w>
▁G o</w>
e ffici
I T</w>
E un</w>
▁vill ages</w>
▁un less</w>
▁sud den</w>
▁far ms</w>
▁al cohol</w>
play ▁ed</w>
b enef
ang h
ac tive</w>
O f▁f
▁spen ding</w>
▁f iscal</w>
▁exper im
y on▁g</w>
p m</w>
n et</w>
i▁ st▁
iz ▁e</w>
eng th</w>
▁t ariffs</w>
▁listen ing</w>
▁grea ter</w>
▁emp ty</w>
▁big ger</w>
▁Pen sion</w>
i ary</w>
h and
▁purch asing</w>
▁in form</w>
▁diplom atic</w>
▁S y
t ings</w>
W on</w>
▁su it</w>
▁st abil
▁manag ing</w>
▁ill eg
▁C ooper
str o▁ng</w>
ou▁r s</w>
no▁ w</w>
T X</w>
▁d ed
▁clos ely</w>
pa▁ st</w>
op e▁r
med ia</w>
it e▁d</w>
Sa▁m sung</w>
▁real ized</w>
▁exclus ive</w>
▁det ected</w>
▁d ivid
tak i▁ng</w>
ough ly</w>
ha▁ v▁e</w>
▁sem ester</w>
▁f ear</w>
▁ac ts</w>
▁Mus ic</w>
wor▁ ld</w>
b oth</w>
▁tro ops</w>
▁shar ply</w>
us ▁t</w>
im ming</w>
d▁ idn</w>
ax y</w>
▁ ic</w>
rec ogn
p o
ll ed</w>
ig ar
hea l▁th</w>
cr imin
at h</w>
ashing ton</w>
ap prov
R S</w>
C ooper
▁k imchi</w>
▁G reen</w>
▁ ted</w>
t▁ ions</w>
l▁ s</w>
es ▁e</w>
appoin t▁ed</w>
20▁1 8</w>
&▁a pos▁;s</w>
&▁a pos;t</w>
▁ver sion</w>
▁sup ports</w>
▁pus hing</w>
▁initi al</w>
▁g one</w>
▁d ark</w>
▁c af
▁In depend
po▁ se</w>
en ▁s</w>
cl ass</w>
N ational</w>
▁sp aces</w>
▁hon or
w ood</w>
urs day</w>
tur ▁es</w>
succ ess
sa▁ ng</w>
re f▁
ou▁ ng</w>
o il</w>
h eal
ev▁ el
enter pris
app ed</w>
T▁ r
Sh in</w>
Gye on▁g
▁m ass</w>
▁d ong</w>
▁com position</w>
▁Ta x</w>
▁C ap
v ac
ut▁ es</w>
um i</w>
ti on▁al</w>
su▁ pp
atiz ation</w>
ar ian</w>
G o▁
▁th▁ ere</w>
▁ch ar
we▁ ek</w>
st age</w>
o▁ ffice</w>
ou sing</w>
ic i▁es</w>
f a▁ns</w>
a▁ ss
▁s ad</w>
▁pack age</w>
▁man ip
▁fe els</w>
▁C ol
u▁n der</w>
t▁ io▁n</w>
ten ing</w>
i▁ zed</w>
es▁ ts</w>
I C
▁t esti
▁oper ations</w>
▁e ither</w>
▁dep ar
▁3 0s</w>
st▁ it
re▁ qu
me th
is s</w>
gr am</w>
E l
▁spec ified</w>
▁monit oring</w>
▁d ry</w>
▁con tribution</w>
▁Ex cept</w>
it ations</w>
e▁ me▁nt</w>
ell a</w>
con sec
a th▁er</w>
A si▁an</w>
▁su ffer</w>
▁det ail</w>
▁Con struction</w>
m▁ en</w>
le▁ ad
az on</w>
am▁p ;</w>
Sup po▁rt</w>
▁scor ed</w>
▁re place</w>
▁cont ain
▁communic ate</w>
▁b re
▁C itizens</w>
▁An y</w>
ul ati▁on</w>
u ted</w>
mil▁ itary</w>
Un ive▁r
A ir
▁adverti sing</w>
we▁ l
uc le▁
o tions</w>
i ously</w>
d a▁ta</w>
N ov
C up</w>
▁pr ime</w>
▁pr a
▁offer ing</w>
▁invest ments</w>
▁c o▁m
▁bloc ked</w>
▁ab and
u▁r n</w>
un ior</w>
t o▁ry</w>
op positi▁on</w>
ic it</w>
▁expres sion</w>
▁conf idence</w>
▁P ohang</w>
▁I CT</w>
s▁ erv
emb e▁r</w>
ef s</w>
▁cons ists</w>
▁c ross</w>
▁at titude</w>
si l</w>
or d▁
is ti▁ng</w>
enc ing</w>
▁y ourself</w>
▁wind ow</w>
▁J o</w>
se▁r vice</w>
j a</w>
au ce</w>
▁pen alty</w>
▁fu el</w>
▁exam ine</w>
▁Comp any</w>
oo thly</w>
ici ary</w>
d ir▁ec
Prov▁ ince</w>
▁custom ized</w>
▁concentr ated</w>
▁Gr and</w>
v ar▁
poli▁ tical</w>
cu▁r rent</w>
ac tion</w>
Prov i▁nce</w>
▁s u▁
▁m om</w>
▁Gyeong nam</w>
▁5 2</w>
re▁ me</w>
on ▁ed</w>
b us</w>
▁mist ake</w>
▁eng aged</w>
▁br ain</w>
▁ab ou▁t</w>
▁W o
▁Hu awei</w>
ir ▁ed</w>
e e▁d</w>
b▁ as
▁l ease</w>
▁e ase</w>
▁disc overed</w>
▁Pol icy</w>
nu▁ clear</w>
m inal</w>
curr e▁nt</w>
ci a▁l</w>
ay i▁ng</w>
Gwang ▁ju</w>
▁sec uring</w>
▁fi ref
▁&a▁ pos;</w>
ult an
ti se</w>
s▁h ip</w>
so▁ on</w>
ch eo▁n</w>
D iv
B l▁
▁prom ised</w>
▁passeng er</w>
▁Tur key</w>
▁D ivision</w>
tur n</w>
r▁eal ly</w>
reg is
p▁ ol▁
p oint</w>
ho▁ ld</w>
form er</w>
estiv als</w>
d on</w>
at▁ or</w>
J une</w>
▁t elecomm
▁chall eng
▁Wh o</w>
w e▁nt</w>
v▁ al</w>
st a▁te</w>
si▁ ble</w>
sh ow▁ed</w>
pre vi
o▁ ffic
ob by</w>
bus i▁ness</w>
b ad</w>
ar e▁a</w>
Or ganiz
▁v ess
▁sec urities</w>
▁r aw</w>
▁arti st</w>
▁Ch useok</w>
un g▁
pp ing</w>
pos▁ ;
osp ital
g u▁n</w>
co▁n t
N am</w>
M y</w>
G▁yeong gi</w>
▁gu ess</w>
▁Ch a</w>
st ablis
s a▁n</w>
l ic
f re
f ee▁
J uly</w>
▁F ree</w>
st op</w>
c rea▁
b▁ ack</w>
▁trav eling</w>
▁sh ooting</w>
▁prov inces</w>
▁lea ds</w>
▁exten sion</w>
▁en thusi
▁al loc
▁H ello</w>
r ights</w>
p▁ eo▁ple</w>
particip at▁ed</w>
mat er
it ch</w>
▁r ide</w>
▁inc en
▁fi erce</w>
▁all owing</w>
▁ d</w>
ti s</w>
te▁ nd</w>
re x
o▁ ver</w>
ic a▁l</w>
f ather</w>
ci en▁ce</w>
activ e▁ly</w>
▁ven ture</w>
▁un like</w>
▁respon ded</w>
▁no ise</w>
▁S ang
▁Malay sia</w>
tr eat
si▁ k</w>
s ince</w>
pr▁ oc
prof essi
ol og▁y</w>
con fl
com fortable</w>
at o▁ry</w>
M W</w>
▁mut ual</w>
▁charg ed</w>
u to</w>
ta▁ e</w>
h▁ igh
ho▁ pe</w>
con d</w>
al▁ ity</w>
al ist</w>
Com p
2 8
▁intro ducing</w>
▁S MEs</w>
te▁ e</w>
ot▁ ed</w>
os en</w>
g u▁
g n</w>
f ind</w>
co▁ st</w>
2 7
▁top ic</w>
▁m unicipal</w>
ver al</w>
res ol
liv i▁ng</w>
ic e▁s</w>
employ me▁nt</w>
ch▁ ang
agre eme▁nt</w>
▁st ability</w>
▁Agric ulture</w>
pr▁ il</w>
ic op
b▁ ig</w>
bl ed</w>
▁wh e▁n</w>
▁sh ow
▁h iring</w>
▁comb ination</w>
▁ad just</w>
s ing▁
is si▁on</w>
ex ▁t</w>
ap y</w>
▁e g
▁d rew</w>
w ant</w>
rou g▁h</w>
re ti
op eni▁ng</w>
o thing</w>
k er▁s</w>
establis h▁ed</w>
er ship</w>
aff ai▁rs</w>
J eong</w>
B us
▁earthqu ake</w>
▁deg ree</w>
▁curr iculum</w>
▁O per
▁Ab ove</w>
sib ili▁ty</w>
sh ▁e</w>
a▁n ts</w>
Kor ea▁n</w>
Intern ation▁al</w>
Gen er▁al</w>
▁th▁ e▁re</w>
▁t ons</w>
▁rel ation</w>
▁los ing</w>
u ting</w>
m m</w>
gener ati▁on</w>
de▁ f
bo x</w>
O h</w>
C ente▁r</w>
▁lea ves</w>
▁c afe</w>
m om
j oy</w>
g yp
fac ilities</w>
A I</w>
▁suspic ions</w>
t▁ e▁d</w>
rec ru
r a</w>
particip a▁te</w>
oc c▁
m at▁
a▁ tion▁s</w>
a th▁
▁st eel</w>
▁p ilot</w>
▁or dinance</w>
▁multi ple</w>
▁merch ants</w>
▁decl ared</w>
▁L ike</w>
▁Cheong ju</w>
s▁ ix</w>
herein a▁ft▁er</w>
dis tribu
air ed</w>
E X</w>
▁y e▁ar</w>
▁pur poses</w>
▁intern et</w>
▁bir thday</w>
▁YouT ube</w>
▁R oad</w>
to▁ o</w>
res taur
m▁ in
ific ations</w>
fi▁ l
er able</w>
ea▁ s</w>
d es▁
c ol▁
K▁ or▁
▁im ag
▁fam iliar</w>
▁a▁ nd</w>
▁V arious</w>
▁3 2</w>
s l▁
rel ated</w>
on ment</w>
ograp h
b▁ le</w>
Pr▁ ov
▁usu al</w>
▁continu ous</w>
▁200 7</w>
m▁ er</w>
iti on▁al</w>
ion a▁l</w>
in et</w>
f ans</w>
e▁ am</w>
d ang</w>
coun tries</w>
a▁r ed</w>
ain t</w>
ad ver
ad ministration</w>
P I</w>
J▁ ap
▁sp ons
▁sh ops</w>
▁re fr
▁inv oice</w>
▁H ol
s ome
a▁n n
aut om
▁s oci
▁f undam
▁f ails</w>
▁e th
▁c atch</w>
y a</w>
w a▁ge</w>
u ff
serv ic▁es</w>
re▁ ss</w>
im pro▁ve</w>
b ooks</w>
OS CO</w>
C o</w>
2 6
▁tal ked</w>
▁fre ely</w>
m et</w>
el i
b udget</w>
J ang</w>
▁trans par
▁f ill</w>
▁extr eme</w>
▁dismis sed</w>
▁bo at</w>
▁ann ually</w>
▁ac tions</w>
▁H on
w a▁ys</w>
v▁ ey</w>
s▁ i</w>
sus pec
o king</w>
f ul▁
com es</w>
a ff▁
Un it▁ed</w>
▁c ode</w>
▁P ower</w>
star t▁ed</w>
s ett
ri ers</w>
om b
dr aw</w>
▁resol ved</w>
▁replac ed</w>
▁An san</w>
r at
mak ▁e</w>
e▁x p▁
et▁ ing</w>
ed▁ ge</w>
S o▁
▁p op</w>
▁gar den</w>
▁f ounded</w>
▁M r
▁M embers</w>
z ▁
r ai▁
q▁ u▁
pos ite</w>
p .</w>
i▁l ity</w>
im al</w>
g e▁t
a▁n c
. .</w>
▁y ellow</w>
▁v acc
▁u plo
▁sing ers</w>
▁s entiment</w>
▁dem ands</w>
▁T rea
▁M an
▁Be ijing</w>
wh eth▁er</w>
ough ts</w>
kn owl
es tr
ead ily</w>
, ▁
▁los ses</w>
▁hand ed</w>
▁cr ack
▁bor row
t▁ic le</w>
s▁ ch
iti v
int▁ ern
int e▁n
il i▁es</w>
am ong</w>
S ta▁
▁s eal</w>
▁l ess
▁g r▁
▁f aster</w>
▁collap se</w>
tor ies</w>
r▁ em
r u▁n
m▁ ov
me et</w>
l▁ evel</w>
e▁r ing</w>
enter ▁ed</w>
e very
c ur▁
al▁ ue</w>
C▁ ity</w>
▁reas onable</w>
▁r are</w>
▁B oth</w>
▁A s
s▁ ub
re▁l ated</w>
p i▁c
il▁ ls</w>
id▁ eo</w>
ic ate</w>
h ot</w>
e▁r t</w>
ci ent</w>
b ors</w>
E ▁n
▁v oc
▁investig ated</w>
▁T imes</w>
o▁r d▁ing</w>
h▁ alf</w>
ener y</w>
bass y</w>
▁sou p</w>
▁rem ove</w>
▁g e
▁am oun
ter ▁ed</w>
ri f
reg ion▁al</w>
fi e▁ld</w>
e▁ ri
ec on▁
d▁ em
T ra▁
▁exemp tion</w>
▁exc av
▁cop y</w>
▁br ight</w>
▁autom atically</w>
▁3 4</w>
sh ould</w>
se o▁k</w>
o▁r d</w>
fin▁ al</w>
c▁h eon</w>
S▁ outh</w>
O per
1 0th</w>
▁p ort
▁h ike</w>
▁day care</w>
▁Seong nam</w>
▁Sec urities</w>
st a▁ge</w>
re▁ ss
if ts</w>
ea c
busin ess▁es</w>
Pa▁r ty</w>
N .</w>
D e▁
▁wid ely</w>
▁e cos
▁Par ticip
▁C ri
th▁ a▁t</w>
r▁ ate</w>
rel ation
os un</w>
l os
it ual</w>
g ov▁ern
ed ing</w>
d ou
aw n</w>
C o▁un
▁lea gue</w>
▁l e▁
▁fac ing</w>
▁expl os
▁earn est</w>
▁For est</w>
y▁ ears</w>
wit ter</w>
spec ▁
h am</w>
gu id
f e▁r
e▁s s▁
elec ti▁on</w>
dr a▁
al▁ ls</w>
&a▁pos▁ ;</w>
▁un usual</w>
▁tow ards</w>
▁power ful</w>
▁B el
rel▁ ated</w>
he▁ l▁d</w>
co▁mp any</w>
ar row</w>
▁Str eet</w>
▁Indus tries</w>
y one</w>
w eb
t▁ ic</w>
pl ied</w>
in▁ v
ea▁ sed</w>
comp et▁
b ank</w>
P resi▁d
▁v eter
▁recogn ize</w>
▁c itizen</w>
▁H ang
lik e▁ly</w>
form ed</w>
&▁a pos;
&a▁pos▁ ;▁s</w>
▁pr o▁
y ear▁s</w>
s▁h all</w>
res p▁
par ▁ed</w>
m id</w>
evelop me▁nt</w>
b▁e ing</w>
at▁ ion▁s</w>
ach iev
5 00</w>
▁tim ▁e</w>
▁satis faction</w>
▁def in
▁bor der</w>
▁J ung
l oo
fac il▁
agre ement</w>
▁situ ations</w>
▁sing ing</w>
▁re jected</w>
▁mis s</w>
▁dang erous</w>
▁ass aul
▁D an
▁Br idge</w>
uch eon</w>
t▁h ere</w>
tr ie▁s</w>
sy▁st em</w>
plo y▁
j u▁
is ional</w>
gover n▁or</w>
e▁ ll</w>
c iv▁il</w>
arb age</w>
▁o therwise</w>
▁lin ked</w>
▁enterpr ise</w>
▁classi fied</w>
▁b attle</w>
▁S ystem</w>
tic ultural</w>
num ber</w>
d a▁
ay be</w>
▁s ources</w>
▁num bers</w>
▁doll ar</w>
▁Y un</w>
▁Inst ead</w>
s▁ ta▁
▁ow ned</w>
▁W ashington</w>
▁Nav er</w>
tim▁ es</w>
produc ti▁on</w>
mor ning</w>
k inderg
in▁ d</w>
ati o▁n
, 6
▁w edding</w>
▁u k</w>
▁s cienti
m▁ en▁t</w>
En ter
20▁ 0
▁sp icy</w>
▁m el
▁flex ible</w>
▁exc eeded</w>
▁behav ior</w>
▁b all
▁W on
▁S oon</w>
▁Kor e▁a</w>
ul ted</w>
tric ▁t</w>
p .m.</w>
oo▁ ls</w>
is io▁n</w>
h▁ ye</w>
f ind
duc ts</w>
3▁ 0</w>
▁win s</w>
▁v oting</w>
▁s pl
▁eng ine</w>
▁Z one</w>
▁M ean
u▁ nd</w>
t ow
re▁ la▁ted</w>
os u</w>
h a▁rd</w>
en c▁y</w>
em p▁l
ec ▁t</w>
arg o</w>
M us
Jap▁ anese</w>
▁stud ied</w>
you▁ r</w>
ou ido</w>
h oo▁n</w>
ech eon</w>
e the▁r</w>
doc um
d er▁
&a▁po▁s ;</w>
▁val u
▁un ification</w>
▁tou ch</w>
▁netw or
▁fos ter</w>
▁fa ith</w>
▁dou b
▁3 3</w>
▁1 50</w>
qu a▁r
p▁ol ice</w>
pl aces</w>
ind ic
f a▁ce</w>
essi ons</w>
c iv
ass ment</w>
▁pre viously</w>
▁hum an
▁adop ted</w>
▁L ooking</w>
▁D i
v en▁
p i
o▁ un▁
igh ters</w>
c▁ er
c m</w>
c e▁d</w>
ath y</w>
M on
M Z</w>
▁w i▁th</w>
▁tur ning</w>
▁str aight</w>
▁h ot
▁fri endly</w>
▁ag ent</w>
▁W ednesday</w>
▁N ex
t▁ h▁
t omorrow</w>
sh▁ all</w>
se▁ as</w>
pr▁ oc▁
or n</w>
ish es</w>
inv olv
ific ati▁on</w>
d aemun</w>
S AT</w>
J in
1▁ 9
▁sh ut
▁retur ning</w>
▁down town</w>
▁Chang won</w>
▁6 5</w>
por ti▁ng</w>
med▁ ia</w>
esti v▁al</w>
c ard</w>
Da e▁
20 th</w>
▁wor st</w>
▁un ve
▁cl ou
▁aut umn</w>
▁I ts</w>
tic▁ al</w>
pa▁ id</w>
in ations</w>
h ealth</w>
el er
de p▁
J u▁ne</w>
▁plen ary</w>
t▁r ict</w>
or▁ ry</w>
im medi
el em
bu il▁
ar ound</w>
accor di▁ng</w>
abil i▁ty</w>
D i▁
▁in str
▁fav or</w>
▁G re
r an</w>
prov id
mus ic</w>
j o▁ng</w>
diffic ul
con▁ t
c ost</w>
3 7</w>
▁s ex
▁memor ies</w>
▁memor ial</w>
▁ap olog
pr▁ ob
l▁ ik
ir▁ ae</w>
in▁ ess</w>
hw a▁n</w>
ex c▁h
▁dis crimination</w>
▁continu ing</w>
▁Gyeong buk</w>
s un</w>
off▁ icial</w>
i▁ ons</w>
ish eries</w>
he▁ al
a▁ k
as ses</w>
▁injur y</w>
▁a r▁
▁Ac ademy</w>
▁&▁ quot;</w>
reg ion</w>
p▁ ri
ograp hy</w>
mo d▁
ann ou▁n
▁ter min
▁le isure</w>
▁hel ping</w>
▁hand ling</w>
▁ha v▁e</w>
h op▁e</w>
ent um</w>
c at
ber g</w>
3 3</w>
▁sem in
▁pain tings</w>
▁fac ts</w>
▁dis advant
▁c red
▁Stud ents</w>
▁Mean while</w>
▁Ac tress</w>
syst e▁m</w>
st e▁
r ise</w>
il it▁y</w>
h aus
art a</w>
ardi an</w>
ad v▁
S C</w>
H ye</w>
▁piec es</w>
▁dis h</w>
sal es</w>
s ou
s afety</w>
k▁ ey</w>
gre▁ at</w>
f em
ech an
c▁om p
co▁m p▁
D A
Coun cil</w>
▁rem oved</w>
▁d er
▁c ited</w>
▁C rea
▁Arti cles</w>
u ition</w>
l e▁d</w>
iti cal</w>
h it</w>
g ers</w>
ec o</w>
bl oc
al ogue</w>
, 7
▁r i▁ght</w>
▁per man
▁det eri
▁coll ecting</w>
▁cl ient</w>
▁aw ards</w>
wi▁ n
ti▁ n▁g</w>
o▁ ok</w>
indus tri▁al</w>
f er▁
emerg en▁cy</w>
con du▁c
cer tific
b el▁
ay ▁ed</w>
U▁n ited</w>
G r
, 4
▁sec ret</w>
▁hum ans</w>
▁f ing
▁disapp eared</w>
▁Yong in</w>
▁K ia</w>
▁Gang seo</w>
s man</w>
prev e▁nt</w>
inclu▁ ding</w>
i e▁nce</w>
ear n
E uro
2 9
▁st ea
▁s p▁
▁h undreds</w>
▁g ate</w>
▁diagnos is</w>
▁cons ent</w>
▁M ike</w>
s e▁d</w>
on▁ es</w>
empl o▁y
al ists</w>
J us
▁mil k</w>
▁har d
u esday</w>
t▁ ies</w>
p u▁r
lo▁ ve</w>
ll ing</w>
is▁ m</w>
e▁c tion</w>
en h
cas ▁es</w>
administr ati▁ve</w>
▁success fully</w>
▁p riv
▁inspec t</w>
educ ▁ation</w>
arm ing</w>
ac▁ c
▁win ner</w>
▁pre fer</w>
▁l et
▁identi ty</w>
▁fe elings</w>
▁employ ed</w>
▁M ad
▁E U</w>
o thers</w>
me an▁s</w>
m yeon</w>
iv▁ er
e▁ ir</w>
en▁ ing</w>
consid ▁
c ourt</w>
bud g▁et</w>
bec om
b o▁r
En▁ g
▁reg ulatory</w>
▁rec over</w>
▁pr im
▁exten d</w>
▁dis charg
▁c up</w>
▁bu yers</w>
st a▁rt</w>
probl em</w>
pr ais
min im
me e▁
f▁er red</w>
com▁ pl
al l▁ed</w>
B usin
▁wat er
▁fru it</w>
▁A be</w>
s ociety</w>
s eok</w>
r▁ ul
oy s</w>
oti c</w>
ot a</w>
n eigh
am ou▁nt</w>
Y ang
Pro moti▁on</w>
, 8
▁wor s
▁rel ief</w>
▁pl ays</w>
▁negoti ation</w>
▁belong ing</w>
▁Ar my</w>
par ag
l e▁s</w>
il ding</w>
i ant</w>
ea▁ m</w>
con feren▁ce</w>
b▁ uk</w>
as k▁ed</w>
Sch o▁ol</w>
H eal▁th</w>
▁m all</w>
▁Shin han</w>
prosec ▁u
o▁r ts</w>
m us▁ic</w>
ir cles</w>
hi▁ gh
employ ▁ed</w>
▁tr ends</w>
▁t i▁me</w>
▁so ft</w>
▁invol ving</w>
▁S om
organiz atio▁ns</w>
or se</w>
m ess
k et
e▁ ls</w>
broad cas
ac tly</w>
&▁ap▁os ;</w>
▁see king</w>
▁j uven
▁ex ▁
▁disclos ed</w>
th in▁g</w>
pro f▁it</w>
mon ths</w>
l▁i k▁
ing ing</w>
e▁ conom
ener ation</w>
eat edly</w>
coun t▁ry</w>
charac ter
a▁m p
ar a</w>
m ov▁
il os
eong nam</w>
ed ged</w>
▁under ground</w>
▁th▁ er▁e</w>
▁n erv
▁ma p</w>
▁issu ance</w>
▁in quir
▁a spec
▁4 5</w>
v eh
qu ality</w>
o▁ l</w>
f oun
en e▁ss</w>
▁prof essors</w>
▁f estivals</w>
re po▁rt</w>
lo▁ ok</w>
e▁n g
coun ter
con si▁
a▁s k</w>
ac ting</w>
D a▁
▁bic ycle</w>
▁In nov
th▁ ing</w>
pl us</w>
l friend</w>
j udg
ation a▁l</w>
B r▁
,0 0▁0</w>
▁sh ipment</w>
▁n utr
▁manag ers</w>
▁fr aud</w>
▁Buddh ist</w>
olo▁ g
l ets</w>
ash ing</w>
▁n ecess
▁j um
▁f allen</w>
▁G o
▁3 0
u p▁
s▁h oul▁d</w>
m illion</w>
for ceme▁nt</w>
dre▁ n</w>
b▁ e▁
Pri▁ me</w>
▁sm oke</w>
▁inter ior</w>
▁happ iness</w>
▁h ous
▁bl ind</w>
▁Con cer
tal▁ ks</w>
ro▁u gh</w>
f▁am ily</w>
ch il▁
brea k</w>
a e▁
S A</w>
En viron
A N</w>
▁im port</w>
▁Coll ege</w>
ur ement</w>
umb ent</w>
sti▁ ll</w>
k e▁rs</w>
for▁ m</w>
f os
D is▁
12 th</w>
▁prosec utors</w>
▁gl ass</w>
▁center ed</w>
stud ents</w>
employ e▁es</w>
elec t▁ed</w>
ay ers</w>
anm ar</w>
▁in her
▁g arbage</w>
▁dis close</w>
▁chann el</w>
▁c y
▁Pro t
ter ▁n
s▁ ur
ro oms</w>
par liam
i▁c es</w>
c▁h a▁r
as ting</w>
D evel
▁sharehol ders</w>
th erm
os is</w>
mea▁ sur
fil m</w>
S h▁
Direc t▁or</w>
B ur
▁pro pos
▁pat ent</w>
▁h eight</w>
▁T own</w>
▁Res idents</w>
▁J ang
wo▁r ld</w>
trans port
s▁ ystem</w>
su fficient</w>
o▁w ing</w>
i▁ gh</w>
ign ment</w>
a w▁ay</w>
V s</w>
▁id ol</w>
▁ch r
▁R ob
▁Am azon</w>
ye on▁g</w>
tr u▁c
s▁tr ong</w>
s anc
rel atio▁ns</w>
pro jects</w>
l in▁e</w>
f i▁ne</w>
ai▁ r</w>
M i▁n
C oun▁
C C</w>
▁reg ime</w>
▁prog res
▁contro versi
▁Inv estig
p▁ o▁s
on▁ ce</w>
me▁d ical</w>
f utu▁re</w>
er age</w>
W oo</w>
S e▁r
▁viol ations</w>
▁p ork</w>
▁legisl ation</w>
▁acqu isition</w>
▁B en
r▁ ough</w>
presid enti▁al</w>
pr ises</w>
loc at▁ed</w>
ic k▁
h▁av ▁e</w>
ho▁ l
S h▁in</w>
▁z ones</w>
▁r ally</w>
▁part ner</w>
▁con tribu
▁clos ing</w>
▁bo y</w>
ul▁ tural</w>
t▁ om
ti▁ ci
inv es▁
ind epend
gu ar
ec te▁d</w>
c a▁ll</w>
U. S▁.</w>
▁w aves</w>
▁replac ement</w>
▁rem ained</w>
▁gr anted</w>
▁con clusion</w>
▁R ather</w>
▁F ur
y▁ oung</w>
t me▁nt</w>
s▁ afety</w>
rec or
ew oo</w>
bu y</w>
. 9
▁Par is</w>
▁F amily</w>
yo▁ ur</w>
iber ati▁on</w>
equ ip
ea h</w>
dis t
ar▁ tment</w>
armaceu tical</w>
▁util ize</w>
▁r oyal</w>
▁r ating</w>
▁pleas ant</w>
▁mess ages</w>
▁inten si
▁im pose</w>
▁begin s</w>
▁K um
t ae</w>
sc re
e u▁n</w>
an el</w>
&a▁po▁s ;▁t</w>
▁st eadily</w>
▁sol ved</w>
▁exp iration</w>
▁R ural</w>
▁Pas tor</w>
w▁ ar</w>
s e▁nt</w>
ous ness</w>
h i</w>
b▁ est</w>
C entr▁al</w>
▁trou ble</w>
▁qu ick</w>
▁mas sive</w>
▁ded icated</w>
▁cl ubs</w>
▁accompan ied</w>
▁U rban</w>
▁G un
ul ating</w>
per ly</w>
partic▁ ip▁
intern at▁ional</w>
a▁in st</w>
S un
G w▁
▁m al
▁aim s</w>
▁W ill</w>
▁S in
▁N orthern</w>
l and
ic▁ an</w>
fac ▁t</w>
ch on</w>
ampion ship</w>
H all</w>
, 9
▁mar ine</w>
▁categ ory</w>
▁E gyp
▁D r
ri c</w>
m▁ an
ind ep
hi▁ m</w>
exp a▁n
c ust
bus▁ in
A sia</w>
▁suppl ied</w>
▁s auce</w>
▁gather ing</w>
▁comp on
▁aff ect</w>
zbek istan</w>
r i▁s
m ant
in sur
f▁or m</w>
bl ing</w>
ac ti▁ve</w>
S oo</w>
Gover n▁ment</w>
▁v it
▁restor ation</w>
▁princi pal</w>
▁land scape</w>
▁analy ze</w>
▁B ig</w>
wor kers</w>
tor al</w>
s▁ er▁
sc▁h ool</w>
rul i▁ng</w>
p oi▁nt</w>
p at▁
l og
k age</w>
dep artme▁nt</w>
contin u
▁th us</w>
▁s a▁id</w>
w a▁nt</w>
sec reta▁ry</w>
n om
g el
con▁ ti▁n
compan ie▁s</w>
P ar▁k</w>
▁tem ple</w>
▁f ro
▁cancell ation</w>
per s▁
i▁n v
i ol
ag er</w>
P▁ar ty</w>
C on▁
▁u l</w>
▁step s</w>
▁st ates</w>
▁i ▁t</w>
▁h arm
▁frequ ent</w>
▁ar chitec
▁Sp ain</w>
wh▁ ere</w>
u▁s try</w>
ul ▁ed</w>
st a▁n
ma▁ y</w>
hea▁ d</w>
gover n▁
econom ic</w>
b ro▁
av il
an c▁ed</w>
R ev
19 th</w>
▁sol ar</w>
▁r ▁
▁pos itions</w>
▁minis try</w>
▁foot ball</w>
▁f ulf
▁f ake</w>
▁an ticip
▁air craft</w>
wh▁ ic▁h</w>
t▁ le</w>
ood les</w>
h ig▁h</w>
a u</w>
&▁apo▁s ;t</w>
&ap▁os▁ ;</w>
▁p our
▁l ab
▁comm unities</w>
▁atten dance</w>
te▁ m
re q▁u
p re</w>
ov .</w>
m anufac
is▁ t
ed g▁ed</w>
dom▁ estic</w>
b i▁
an▁ other</w>
af ternoon</w>
C ourt</w>
201 5</w>
▁win ners</w>
▁por tion</w>
▁politi ci
▁k ing</w>
▁appro ach</w>
▁ad ult</w>
ond ary</w>
mi▁ll ion</w>
m ove</w>
m ad▁e</w>
h ou▁
ch o</w>
candid a▁te</w>
an n▁
ain ts</w>
1 8th</w>
▁temper atures</w>
▁reg arded</w>
▁mand atory</w>
▁hon or</w>
▁her itage</w>
▁ev ac
▁dest ination</w>
▁custom s</w>
▁P ur
▁A uth
urr ence</w>
sub ▁
o ir</w>
itch en</w>
beg▁ an</w>
an▁ ch</w>
Je▁ ju</w>
▁t uition</w>
▁sol id</w>
▁re in
▁St and
▁S ol
v ic▁e</w>
s m▁
po▁ p
ond on</w>
m i▁l
j oin
h▁ a▁d</w>
a▁ rou▁nd</w>
▁trans port</w>
▁s it</w>
▁forec ast</w>
▁ad ap
ur e▁s</w>
tu▁ al</w>
st ory</w>
situ ati▁on</w>
se▁ cond</w>
rea▁ dy</w>
exper i▁
d▁ own</w>
M e
K a▁ng</w>
4 8</w>
▁s outh</w>
▁ran king</w>
▁N ot
▁C h▁
un▁ ity</w>
ul p
resear ch▁er</w>
minis t▁er</w>
int▁ er▁
ij eong
erea ved</w>
ell er</w>
c▁ oun
ch es
b al</w>
H a</w>
Gy▁ eong
▁vi ews</w>
▁des ire</w>
▁J eong
▁Gor yeo</w>
t▁h ree</w>
sup▁ port</w>
sh ort</w>
s ea</w>
re t▁
pl▁ ex</w>
m y▁eon</w>
inspec ti▁on</w>
ellec tual</w>
conc entr
a▁ fte▁r</w>
ate▁ gy</w>
ac h▁
Am er
▁deb ut</w>
▁aud iences</w>
▁Yong san</w>
▁M ajor</w>
respec tively</w>
oo den</w>
on a</w>
c ap▁
amp▁ ;</w>
ac r
A p
▁st aying</w>
▁parti ally</w>
▁gu ests</w>
▁el imin
▁crea m</w>
ver n
j▁ oy</w>
et own</w>
driv i▁ng</w>
att ached</w>
al▁ ready</w>
Pro sec
C ou▁n
0 ,0▁00</w>
▁ecos ystem</w>
▁P OSCO</w>
▁N or
▁4 00</w>
yo▁ ung</w>
un ion</w>
s▁ ized</w>
sit uation</w>
ph ot
oc▁r atic</w>
oc r▁
l ater</w>
k▁ et</w>
ap ed</w>
an▁ n
an▁ k</w>
D el
▁th oughts</w>
▁sub ordinate</w>
▁rec ycl
▁advertis ement</w>
poin t▁ed</w>
l er</w>
i▁n cial</w>
issi ons</w>
if▁ ic</w>
fir s▁t</w>
em phas
duc es</w>
c en▁
▁revital ize</w>
▁c ake</w>
▁Con trol</w>
w om▁en</w>
re▁ st</w>
p .▁m.</w>
ma▁ t
l ey</w>
gan ic</w>
c ou
▁ph ones</w>
▁kil om
▁expen se</w>
▁don ated</w>
ucle▁ ar</w>
t▁ ae</w>
sus p▁
pro moti▁on</w>
m yeo▁n</w>
e▁n ti
ach es</w>
Ju▁ ly</w>
1 5th</w>
▁w ine</w>
▁t ar
▁m ood</w>
▁fir es</w>
▁clim ate</w>
▁bat tery</w>
▁CC TV</w>
ultur ▁e</w>
u h
t▁ iv
find i▁ng</w>
et t▁er</w>
dep u▁ty</w>
d ▁e</w>
a▁n s
F o▁
▁saf ely</w>
▁St ore</w>
▁Al ong</w>
pr ing</w>
pop ul▁ar</w>
ow n▁ed</w>
or ful</w>
if i▁ed</w>
grad u
ee▁ ds</w>
d ae</w>
W elfa▁re</w>
Mar ch</w>
▁serv ants</w>
▁partic ularly</w>
▁fur n
▁M or
▁K wang</w>
▁ ent</w>
repres ent▁
n▁ ess</w>
n ings</w>
e d▁uc
compa▁n ies</w>
3 4</w>
▁ur ged</w>
▁refug ees</w>
▁fil ming</w>
▁epis ode</w>
▁S ociety</w>
▁N ong
▁N e
▁In spec
▁C er
w ing</w>
u g▁
re port▁ed</w>
ot▁ el</w>
is h▁
e▁n t▁
S ong
Associ ati▁on</w>
▁p rou
▁lif elong</w>
▁inform ed</w>
▁hol ds</w>
▁fun eral</w>
▁boo k
▁ab und
▁1 .5</w>
w▁ ard</w>
wh el
iv ▁ed</w>
go▁ al</w>
envir o▁n
b▁e fore</w>
S E
11 th</w>
▁ver ification</w>
▁sm oothly</w>
▁deliber ate</w>
▁app oint</w>
▁Se wol</w>
▁H w
▁19 6
s o▁l
over se▁as</w>
oth e▁r</w>
l ar▁
h▁ n
f ine</w>
f ig
N E
▁st ood</w>
▁rep eatedly</w>
▁gr and</w>
▁g aining</w>
▁fe et</w>
▁dis asters</w>
▁Pl anning</w>
with standing</w>
t ook</w>
iv▁ en</w>
ill▁ ion</w>
il t</w>
ig g
e▁n se</w>
eleb ri
d et▁
cri tici
bec a▁me</w>
ati s</w>
am ber</w>
2▁ 0</w>
▁st ance</w>
▁sinc er
▁fin es</w>
▁cor ner</w>
s▁ oon</w>
r▁ ep
pres s
m ulti</w>
m anufactur
j ung</w>
en n
S ept
Kor▁ ean</w>
Ch▁ ina</w>
▁w o▁r
▁w est</w>
▁sh ips</w>
▁proc essed</w>
▁prev enting</w>
▁identi fy</w>
▁Gir ls</w>
w▁ it▁h</w>
si▁ ty</w>
inc▁ re▁ase</w>
fi▁r st</w>
▁volunt ary</w>
▁larg er</w>
▁calcul ated</w>
▁Sen ior</w>
▁P o
▁M ilitary</w>
▁Gw anak</w>
u▁ tion</w>
ign ation</w>
citiz e▁ns</w>
areunm irae</w>
an im
S ▁h
C o▁n
▁succ eeded</w>
▁strength ened</w>
▁inspec tions</w>
▁illeg ally</w>
▁gu ard</w>
▁ear th</w>
▁d r▁
▁cal c
▁am b
▁K oo</w>
▁J ohn</w>
▁Hwas eong</w>
t▁r y▁ing</w>
res ul▁ts</w>
j un
ea ble</w>
de▁c i▁ded</w>
ay ment</w>
▁un comfortable</w>
▁tim ing</w>
▁suppl ies</w>
▁sup posed</w>
▁inc umbent</w>
▁S ur
um ber</w>
ti g
tem per
sp a▁ce</w>
rex it</w>
pr eme</w>
politi c▁al</w>
es ides</w>
en ior</w>
c ean</w>
a▁ ms</w>
as hed</w>
▁wea pons</w>
▁to il
▁sec re
▁br idge</w>
urr y</w>
s▁ un</w>
s▁ l
si o▁ns</w>
re port
g oo▁d</w>
e▁ lec
c all</w>
Gang won</w>
B u▁
▁rec ip
▁r ace</w>
▁k een</w>
▁er ror</w>
▁c at</w>
▁bea ch</w>
▁accur ate</w>
▁N ew
▁C ustom
t l▁y</w>
l▁ ine</w>
i▁ als</w>
intern ation▁al</w>
er k</w>
en ses</w>
P r▁es
@▁ -▁@</w>
0 00</w>
▁tea ch</w>
▁p eak</w>
▁n ote</w>
▁fl ag</w>
▁I s
w▁ i▁ll</w>
pl an
p it
o pl▁e</w>
n ation</w>
larg e▁st</w>
l ea▁r
k▁ now</w>
fu▁ l</w>
In tern▁
C ultur▁al</w>
▁s ick</w>
▁c o▁
▁bo ost</w>
s▁ ol
sur ▁e</w>
go al</w>
fu▁ ll</w>
e▁ x</w>
at▁ her</w>
ati o▁nal</w>
▁str eets</w>
▁s ac
▁person ality</w>
▁c ultur
▁Hea vy</w>
▁ tr
t▁ ive</w>
pl at
m e▁d</w>
h▁ el
c k</w>
a▁t es</w>
an▁ ks</w>
F eder
&▁ a▁
▁selec ting</w>
▁ro of</w>
▁restric tions</w>
▁offic io</w>
▁li ked</w>
▁dr aft</w>
▁a te</w>
▁Ir an
▁Asi ana</w>
ur ches</w>
su▁pp o▁rt</w>
ou g▁ht</w>
os s
e▁ men▁t</w>
et▁ ter</w>
e t▁s</w>
e ig▁ht</w>
cur r▁
A pril</w>
▁sti p
▁favor able</w>
▁enjoy ing</w>
▁e c
▁Y eah</w>
▁C el
th▁ ere</w>
star ti▁ng</w>
our▁ t</w>
issu es</w>
f requ
ent age</w>
S ong</w>
S o</w>
J a▁ng</w>
H▁ an</w>
Ch a▁ir
. 7
▁sm ile</w>
▁mar ks</w>
▁m ission</w>
▁f it</w>
▁deep ly</w>
▁Independ ence</w>
▁Gal axy</w>
sec uri▁ty</w>
pr▁oc▁ ess</w>
m▁ ar▁
in▁ cial</w>
er in▁g</w>
eas ing</w>
art ers</w>
ach eon</w>
In cheon</w>
2 1st</w>
▁sw imming</w>
▁st adium</w>
▁recru it</w>
▁allow ance</w>
▁U.S.- China</w>
▁S orry</w>
s▁ ia</w>
rev eal▁ed</w>
pon ent</w>
in formation</w>
g▁ ot</w>
g ent
e in</w>
P▁ l
Comm▁ ittee</w>
▁s ai▁d</w>
▁n arrow</w>
▁expl ains</w>
▁c ou▁ld</w>
▁201 ▁
v e▁r</w>
ti▁ al</w>
sa▁ y</w>
op pos▁
n ews</w>
ien t▁ed</w>
exc ell
N ort▁h</w>
▁low ered</w>
▁k eeping</w>
▁c ells</w>
▁L t
▁El ementary</w>
th ere
o y▁
mon t▁h</w>
l t</w>
h um▁an</w>
er g▁
elec tr▁
a▁ st
ac ts</w>
C D</w>
▁writ er</w>
▁certif ied</w>
si us</w>
r▁ d</w>
ro le</w>
id ential</w>
c itizens</w>
af▁ ter</w>
Fin anci▁al</w>
▁tea ching</w>
▁pl▁ ace</w>
▁Ar ab
l on▁g</w>
k▁ ers</w>
il eg
ew er</w>
e h▁
B O</w>
Artic▁ l▁e</w>
▁smo king</w>
▁in stitutes</w>
▁displ ayed</w>
▁comp ar
▁R eal</w>
▁3 6</w>
wo▁r king</w>
tu s</w>
t ech</w>
h ours</w>
fr ont</w>
cul▁ tural</w>
c ame</w>
b es</w>
3 8</w>
&a▁pos; d</w>
▁m o▁n
▁inten ded</w>
▁exper tise</w>
▁exhib itions</w>
▁boy friend</w>
▁S uch</w>
▁G ar
s een</w>
pro gr▁am</w>
it ely</w>
invest▁ ig
ik es</w>
f ol
b en
ac cus
N o.</w>
Com▁ m
A g
4 9</w>
,5 00</w>
▁surpr ised</w>
▁sett led</w>
▁lux ury</w>
▁l ink</w>
▁dis appoin
▁co ordin
▁a c▁
▁Jeoll anam</w>
▁J u</w>
r al</w>
pos sib▁
p oor</w>
over s</w>
me▁ di
cl▁ os
ac le</w>
P▁ ark</w>
P yong
▁s ix
▁j us
▁ex tingu
▁M od
wee k
ver▁ sy</w>
or ient▁ed</w>
n u▁m
ma▁r ket</w>
lik ely</w>
ex chang
diff▁er ent</w>
a▁ rea</w>
ac ▁t</w>
Y o▁on</w>
1 4th</w>
▁veget ables</w>
▁up coming</w>
▁satis fied</w>
▁n o▁t</w>
▁an gry</w>
▁agric ulture</w>
▁Sou theast</w>
▁S u</w>
▁F isheries</w>
h wan</w>
g ir
fr▁ i
d uring</w>
▁res t
▁r oo
▁over l
▁con fron
▁collap sed</w>
▁c ircles</w>
▁b ar</w>
▁ass igned</w>
▁advertis ements</w>
▁My anmar</w>
▁Do osan</w>
▁B areunmirae</w>
s ent</w>
p▁ ar▁
pr ise</w>
iss▁ ue</w>
f ish
e▁n tly</w>
c ou▁rt</w>
att en▁
an ish</w>
all ig
P al
Bl▁ ue</w>
▁p al
▁k ids</w>
▁e scape</w>
▁arr anged</w>
▁O b
▁Ital y</w>
▁H ead</w>
u el
tiv ▁es</w>
techn ology</w>
sex u▁al</w>
o▁ u▁t</w>
n e▁d</w>
l ad
e▁x pec
af te▁r</w>
a he▁ad</w>
▁w alls</w>
▁piec e</w>
▁h idden</w>
▁b ereaved</w>
▁B ae</w>
▁2 ,000</w>
▁&q▁u o▁t;</w>
sp ace</w>
s uc▁h</w>
s i▁n
previ o▁us</w>
ow▁ s</w>
ol▁ ogy</w>
go i▁ng</w>
ft ware</w>
eti zens</w>
es pec
ak arta</w>
▁pers pec
▁main taining</w>
▁clos er</w>
▁Every one</w>
sup pl
rece i▁ve</w>
ow ad
l▁ ife</w>
i▁ tie▁s</w>
f▁ in
f inis
e▁nt ary</w>
ea▁ t</w>
a▁m a</w>
att ach▁ed</w>
ag▁ ain▁st</w>
J eon
▁s qu
▁l ea▁
▁b id
w el
te er</w>
se ver
pe▁r son</w>
organiz ati▁on</w>
h ib▁
2 7th</w>
▁volunt arily</w>
▁vis its</w>
▁tur ns</w>
▁thor oughly</w>
▁sam ples</w>
▁lim itations</w>
▁U zbekistan</w>
▁Co ast</w>
wh a▁t</w>
vis it</w>
o▁ ri
al one</w>
Gang nam</w>
A ug
▁scholar ship</w>
▁sc andal</w>
▁s inc▁e</w>
▁implem enting</w>
▁cons ensus</w>
▁accum ulated</w>
os eong</w>
op i▁n
on ight</w>
j u▁ng</w>
h app
d ingly</w>
conduc t▁ed</w>
al k
aff airs</w>
. 8
▁w ild</w>
▁mul ticultural</w>
▁l ength</w>
▁fea sibility</w>
▁chann els</w>
s▁ orr▁y</w>
s o▁m
pos t</w>
e▁n d
S▁e o▁ul</w>
D evelopme▁nt</w>
▁T witter</w>
▁J oint</w>
vers ity</w>
und▁ ai</w>
ri▁ se</w>
res erv
quart e▁rs</w>
l▁ et</w>
dis cu▁
coun tri▁es</w>
c ess</w>
J▁ ae</w>
▁recor ding</w>
▁prom ise</w>
▁adj ustment</w>
▁a l▁
▁Il bo</w>
n or
iv▁ ing</w>
f▁ ro▁m</w>
comm unity</w>
appear ▁ed</w>
Serv i▁ce</w>
▁res ulting</w>
▁h ur
man ip
k g</w>
hos t▁ed</w>
d one</w>
c▁ ent</w>
Sec uri▁ty</w>
▁mag az
▁happen s</w>
▁ass oci
t al</w>
s▁ ince</w>
l in</w>
govern m▁ent</w>
f il▁
f a▁r
▁slow down</w>
▁gu est</w>
▁extr em
▁comm od
▁civ ilian</w>
▁brea d</w>
▁Ch un
▁A ward</w>
▁A g
ur▁ ch</w>
trad ition▁al</w>
re▁ t
ref lec
m its</w>
ir t</w>
f u▁n
caus ▁ed</w>
ak ▁
C o
▁pres ervation</w>
▁hel p
▁fre edom</w>
▁f oun
▁ab sol
▁M er
ult▁ ural</w>
rel eas▁ed</w>
reg ar
o▁ te</w>
l▁ ittle</w>
la▁ w
il ty</w>
i w
avo id
▁volunte ers</w>
▁str ange</w>
▁ris en</w>
▁prov ision</w>
▁par agraphs</w>
▁M ok
▁B ang</w>
u▁s h</w>
s▁ ayin▁g</w>
s k▁
k ish</w>
g▁ ro▁
con ti▁n
c op
&apos; ▁
▁trea t</w>
▁ref used</w>
▁oper ates</w>
▁op posed</w>
▁entr eprene
▁L un
▁Air lines</w>
un i
q▁u▁ ot;</w>
o▁ le</w>
m ent▁s</w>
is▁ on</w>
g reat</w>
ed estr
d ig
contr a▁ct</w>
&▁a pos;▁s</w>
▁tempor arily</w>
▁ph ase</w>
▁mob il
▁M ich
s▁ ide</w>
sus p
owad ays</w>
ordin ary</w>
ic i▁al</w>
environ me▁nt</w>
du▁r ing</w>
dr y</w>
S i</w>
▁vis ion</w>
▁tex t
▁tax pay
▁kn ows</w>
▁di e</w>
▁beh alf</w>
▁ab norm
▁Ex change</w>
r ank
o▁l ogy</w>
ous▁ ly</w>
ch ai▁rm▁an</w>
ag on</w>
▁sm ell</w>
▁rout es</w>
▁ex cluding</w>
▁Sw ed
▁Jeon ju</w>
ov e▁r</w>
lea di▁ng</w>
g ▁e</w>
es▁ ted</w>
enti ally</w>
der ▁s</w>
dec▁ is▁ion</w>
Sup re▁me</w>
A hn</w>
▁v otes</w>
▁perc entage</w>
▁log istics</w>
▁gener ations</w>
▁c argo</w>
u d</w>
th ird</w>
od es</w>
itt ees</w>
gr and
e▁ ong</w>
environ ment</w>
c e▁s</w>
ar res
ag a▁in</w>
▁m agn
▁form ation</w>
▁Mar itime</w>
▁Dru g</w>
▁Ch un</w>
tog eth▁er</w>
s per
is ▁t</w>
c au
as sed</w>
▁rep eated</w>
▁min or</w>
▁m ir
▁institu tional</w>
▁Eng land</w>
wi▁ fe</w>
un ivers
u til
serv ices</w>
r▁ ed
p▁ art</w>
pl▁ y</w>
p oll
mat ch</w>
inn ov▁
h u▁
au gh</w>
ap h
S K</w>
▁strugg ling</w>
▁sp okesman</w>
▁some what</w>
▁small er</w>
▁rea c
u t▁ion</w>
s oc▁
ran ki▁ng</w>
g ather
exp a▁nd</w>
a▁ mo▁
, 3
▁tour nament</w>
▁gradu ate</w>
▁fl av
▁disp utes</w>
▁cons ult</w>
▁Gwang jin</w>
▁B ucheon</w>
ung po</w>
t▁ri al</w>
m ind</w>
m et
iver ▁
if ic▁
expec t
e ived</w>
ay a</w>
ak a</w>
Ch e
▁l ibr
▁impres sive</w>
▁im ports</w>
▁cl oud</w>
▁anx iety</w>
▁answ ers</w>
▁answ ered</w>
▁Dis aster</w>
▁3 8</w>
v id▁eo</w>
om ing</w>
in ate</w>
ig er
gover n▁ment</w>
el l▁
co in</w>
ch▁ ool</w>
and is</w>
ai▁r man</w>
ab uk</w>
a eg
▁st om
▁prot est</w>
▁investig ations</w>
▁gener ated</w>
▁g ri
▁ch osen</w>
▁b ow
▁b io</w>
▁Law maker</w>
▁Afr ica</w>
pro▁ bl
over ▁
oo▁ ks</w>
m▁ ental</w>
inc▁ rea
g l▁
f ew</w>
L im</w>
▁sc enery</w>
▁review ing</w>
▁off ers</w>
▁demonstr ation</w>
▁ass istance</w>
▁a uto</w>
▁Th ursday</w>
▁S al
vi▁ r
pol itan</w>
la▁ w</w>
l es▁s</w>
igh ter</w>
design at▁ed</w>
as c
ar i</w>
ag e▁s</w>
▁withdraw al</w>
▁co ol
▁character ized</w>
▁H ousing</w>
w▁ or▁
w▁ ith
t unately</w>
spec ial</w>
p ain
ill ing
gu es</w>
em er▁
ec e</w>
dis c▁
cont in▁ue</w>
con serv
b▁ o
az ing</w>
a c</w>
Gwang ju</w>
▁separ ated</w>
▁ris ks</w>
▁res ▁
z one</w>
th ei▁r</w>
ook min</w>
m i▁ng</w>
gr at
comm uni▁ty</w>
at o</w>
&▁a pos▁;t</w>
▁sens itive</w>
▁restric ted</w>
▁n orth</w>
▁m erg
▁f erry</w>
▁W ater</w>
▁N et
▁Bl ack</w>
ti▁ l</w>
tern s</w>
o▁ use</w>
oc ol
m▁ at
li▁ ve</w>
f ish</w>
er▁ y</w>
differ e▁nt</w>
b or</w>
Univer ▁
G▁ u</w>
5 2</w>
▁‘ ‘</w>
▁l ed
▁St adium</w>
t▁ on</w>
por▁ t
p oin▁
f▁ uture</w>
e▁ ars</w>
enc our
e very</w>
cons ci
a▁r ty</w>
anc e▁s</w>
ab l▁ed</w>
D P</w>
▁s oo</w>
▁resid ence</w>
▁m ass
▁liter ature</w>
▁let ters</w>
▁l e▁v
▁kilom eters</w>
▁bur eau</w>
▁b ear</w>
y l
se▁ en</w>
s eas
fe▁ el</w>
et c.</w>
enterpris ▁es</w>
comp▁an ie▁s</w>
chil d</w>
▁c ust
▁a im</w>
▁Y eon</w>
▁20 ▁
s▁ e
s por▁ts</w>
ra▁p h</w>
ilit ation</w>
g i
es▁ tiv
el▁ d</w>
am ing</w>
a ver
B u
▁th e▁ir</w>
▁c ab
▁acqu aint
▁Sh ow</w>
▁Offic ials</w>
▁G ood</w>
q▁ ue</w>
n▁ ame</w>
he▁ on</w>
eti n</w>
ac ific</w>
Tr u▁mp</w>
O ct
H ou▁se</w>
. 6
▁st ages</w>
▁sit ting</w>
▁produc ing</w>
▁hel icop
▁S ure</w>
▁Del iberation</w>
▁C J</w>
wor ds</w>
th rou▁
pol icies</w>
pa▁ y
infl u
e▁ um</w>
ex isti▁ng</w>
der ▁ed</w>
ch ief</w>
▁o d
▁harm ful</w>
▁for ms</w>
▁evalu ate</w>
▁crack down</w>
▁certific ates</w>
▁Her itage</w>
▁3 ,000</w>
us hed</w>
sus pic
su ffer
r▁ s</w>
e▁ ff
ev en
a ur
3 6</w>
▁s ik</w>
▁abs ence</w>
▁Un ification</w>
▁F SS</w>
▁Com pared</w>
▁4 0s</w>
er▁ ing</w>
ep age</w>
c▁ ar
ap es</w>
Mar▁ ch</w>
K▁or ea▁n</w>
Ch il
Busin e▁ss</w>
▁pres ence</w>
▁occ as
▁e ast</w>
▁dem entia</w>
▁d eal
▁boo ked</w>
▁Con stitutional</w>
un ds</w>
se qu
sa▁ ying</w>
s av
pe▁ opl▁e</w>
id er</w>
dis app
d own
d est
ati cs</w>
al ism</w>
Y▁ oo</w>
Con struc
A ▁n
▁t ears</w>
▁ex haus
▁correspon dent</w>
▁P resid
t▁ ment</w>
pre dic
or ▁e</w>
iv alent</w>
in c▁lud
g yo</w>
direc t▁ly</w>
d eath</w>
▁scen es</w>
▁mur der</w>
▁mo is
▁l ong
▁const antly</w>
▁an ti
▁Han oi</w>
stablis h
sid ▁e</w>
o▁ pe</w>
o▁ b
g rea
ch ▁es</w>
Su▁ preme</w>
N G</w>
A▁ ss
▁out come</w>
▁mis s
▁fac ed</w>
▁f ighting</w>
▁Not withstanding</w>
▁Innov ation</w>
su▁ n</w>
oc king</w>
n at▁
fr▁ o▁m</w>
co▁n t▁
al i▁ty</w>
S e</w>
H e</w>
A pr▁il</w>
▁work place</w>
▁res truc
▁re f▁erred</w>
▁indic ators</w>
▁in sufficient</w>
▁franch ise</w>
▁fac tories</w>
▁be ef</w>
▁Wor kers</w>
▁V alley</w>
or gan
ex chan▁ge</w>
etro po▁l
ens ▁e</w>
empl▁ oy
an a▁l
G r▁
F C</w>
Agric ultur▁al</w>
▁win ds</w>
▁s or▁ry</w>
▁qual ification</w>
▁fr▁ om</w>
w ee▁
mo▁ ve</w>
ig h▁er</w>
eas y</w>
ch e
ap▁ ed</w>
W omen</w>
S on</w>
Dep u▁ty</w>
▁tr uck</w>
▁abund ant</w>
▁Pre viously</w>
▁I l</w>
ven ti▁on</w>
t▁ al
mor ni▁ng</w>
maj or</w>
it ability</w>
inform▁ ation</w>
f u▁r
e▁ te</w>
en a</w>
e ung
af t▁
S▁ eo</w>
5 5</w>
3 9</w>
▁perman ent</w>
▁drea ms</w>
▁2 6
w ent</w>
ul g
st ing</w>
r or
pos▁ si▁ble</w>
p ool</w>
n ation
mon t▁hs</w>
end ship</w>
a▁l ity</w>
Hw a▁ng</w>
▁the ory</w>
▁pas sion</w>
▁ob ser
▁K E
▁E ui</w>
▁Conf uc
▁5 0s</w>
w▁ it
tr ue</w>
pas sed</w>
om estic</w>
i z</w>
ey ed</w>
ch a▁ng
c iti▁es</w>
angh ai</w>
G eun</w>
B yung</w>
4 2</w>
13 th</w>
▁scor es</w>
▁pr o</w>
▁neighbor hood</w>
▁m i</w>
▁enti ty</w>
▁Dec laration</w>
uc k
t▁ ake</w>
s ym
re vis
re po▁r
produc t</w>
m e▁nts</w>
j▁ ust</w>
e▁n cy</w>
elebri ties</w>
d ay▁s</w>
▁serv ing</w>
▁res erve</w>
▁controversi al</w>
▁Un ions</w>
um ul
ual ties</w>
tr▁ ict</w>
par k</w>
j ang</w>
in te▁
fun▁ ds</w>
ff▁ ic</w>
ev e▁r
eff or▁ts</w>
d a▁te</w>
I A</w>
H y▁
9 2</w>
▁s ew
▁mon etary</w>
▁loc als</w>
▁em otional</w>
▁I sl
▁Gyeongsang nam</w>
y wood</w>
un▁ ch</w>
sc ale</w>
m▁ od
m o▁r
if ▁e</w>
e y▁
can n▁ot</w>
c ou▁
at▁ i▁on</w>
W▁ or
R es▁
H ead
▁n oodles</w>
▁k itchen</w>
▁har assment</w>
▁H ong
▁Aud it</w>
▁A f
w arr
pos sib▁le</w>
offic ials</w>
eep s</w>
ea ting</w>
de▁v el
az ak
aff ili
& am▁p;</w>
▁w ooden</w>
▁un t▁il</w>
▁st ayed</w>
▁comp ete</w>
su▁ it</w>
r y
por t▁s</w>
l ead</w>
hist ory</w>
d ust</w>
curr ent▁ly</w>
b ang</w>
al ities</w>
Tra▁ de</w>
S por▁ts</w>
G ov▁ern
Ar t</w>
▁so il</w>
▁m ission
▁T h▁
▁H a
▁Comm unity</w>
ug ar</w>
k n▁
ir s</w>
eep er</w>
c▁ au▁
agr am</w>
S um
▁cur ious</w>
▁b ond</w>
▁U K</w>
▁S o
▁D em
t op
res sion</w>
pay me▁nt</w>
ol d
j ak</w>
in struc
i ated</w>
e▁ at</w>
con▁ti▁n ue</w>
chang ed</w>
R▁ W</w>
In stitu
▁analy zing</w>
▁F our</w>
w ed</w>
t▁ ional</w>
ti▁ c
pr o</w>
om e▁n</w>
om er
oc ated</w>
e▁ ge</w>
er as</w>
di▁ sc
c▁ha▁r ge</w>
cas es</w>
ai▁ ly</w>
agric ultur▁al</w>
Y ear</w>
▁sub committee</w>
▁l ights</w>
▁j oy</w>
▁fol k</w>
▁di et</w>
▁academ y</w>
▁Int elligence</w>
▁Gim po</w>
vi e▁
ur b▁an</w>
mon▁ ey</w>
erg ency</w>
en er▁gy</w>
com par▁ed</w>
ad d▁ed</w>
J un▁g</w>
C▁h ina</w>
A ut
▁honor ary</w>
▁C andid
st▁ op</w>
r▁ et▁
direc tor</w>
cil or</w>
ci t▁y</w>
b▁ ers</w>
ap▁ p
ain e▁d</w>
ad j
S ub
F r▁
B a▁nk</w>
20 0▁
2 3rd</w>
▁w astes</w>
▁rev olution</w>
▁f ail</w>
▁ear ned</w>
▁aband oned</w>
wor▁ ks</w>
val ue</w>
t ype</w>
su ff
s in▁g</w>
re port</w>
em y</w>
dec lar
ag eous</w>
P a▁
O s</w>
N e▁w</w>
4 3</w>
▁wh▁ o</w>
▁strateg ic</w>
▁gir lfriend</w>
▁fun ding</w>
▁fa ith
▁dist ingu
▁differ enti
▁analy sts</w>
ustain able</w>
rou▁ ps</w>
por ter</w>
ol▁ ve</w>
iz▁ at▁ion</w>
ici ans</w>
a▁mo▁ unt</w>
S ep
O▁ ffice</w>
O R
▁subscri ption</w>
▁sen iors</w>
▁ex ist</w>
▁cons ist
▁V ol
▁C ath
s▁ exual</w>
p▁l ace</w>
ministr ative</w>
jec tion</w>
eli hood</w>
draw i▁ng</w>
allig rap
ad em▁
▁var i
▁un expected</w>
▁prou d</w>
▁n oted</w>
▁h ate</w>
▁fundam ental</w>
▁di alogue</w>
▁b odies</w>
▁Sm art</w>
▁Med ium</w>
▁H er</w>
▁Cri tics</w>
▁2 8
w o▁men</w>
vi o▁l
th i▁n
r▁ is
rais ▁ed</w>
per▁ ty</w>
ov el</w>
m enti
ba▁ se</w>
b ase</w>
ab▁ out</w>
U l
I l
Al t▁h
A I
2 6th</w>
1 s▁t</w>
▁subsid iary</w>
▁rain y</w>
▁pos s
▁gener ally</w>
▁cl erk</w>
▁Reg ional</w>
▁P ost</w>
▁B ible</w>
▁Ar t▁icle</w>
v ent</w>
tr i▁ll
s▁ ing
s el</w>
oo▁ ds</w>
m u▁st</w>
in ning</w>
in jur
e▁ ther</w>
ca▁ p
ag ency</w>
act▁ iv
C ultu▁re</w>
▁uncer tain
▁targ ets</w>
▁subscri bers</w>
▁sec ondary</w>
▁le▁v el</w>
▁ind oor</w>
▁calc ulation</w>
tr ea▁
r▁ec ent</w>
rea son
on▁ y</w>
m eas▁
j oin▁
en▁ tial</w>
co▁ ll
▁wit n
▁unve iled</w>
▁tr ain
▁thous ands</w>
▁rail way</w>
▁ad mitted</w>
▁ac tress</w>
▁G uro</w>
▁&apo▁s ;▁s</w>
sea s▁on</w>
s ively</w>
re te</w>
r e▁d</w>
orth e▁rn</w>
lig ence</w>
all i▁ng</w>
▁th▁ ink</w>
▁semin ar</w>
▁r oll
▁L ondon</w>
▁Jud ge</w>
▁Comm erce</w>
t m▁ent</w>
or▁ es</w>
n ex▁t</w>
l angu
i▁r st</w>
in▁ t▁o</w>
er▁ ce</w>
comm er
b re▁
H a▁ll</w>
▁th ea
▁l ▁
▁ins isted</w>
▁consid erable</w>
ul ▁t</w>
si▁ a</w>
pro mis
pp oin
osp it▁al</w>
m aking</w>
iver s</w>
in▁ cluding</w>
illeg ▁al</w>
ful▁ ly</w>
e▁ er</w>
dep art
compl▁ ex</w>
b▁ec ome</w>
at▁ io▁ns</w>
▁work shop</w>
▁sharehol der</w>
▁r ock</w>
▁ex it</w>
▁cri tical</w>
▁counter measures</w>
▁b an</w>
▁ try</w>
su ant</w>
off i▁ci
m▁ uch</w>
min u▁te</w>
int egr
in qu
in ery</w>
hib ition</w>
ess i▁on</w>
cre a▁te</w>
a ul</w>
R e
In d▁
▁stat ements</w>
▁re views</w>
▁r om
▁estim ate</w>
▁coll ective</w>
▁Mongol ia</w>
▁Indi an</w>
tem por
sh al▁l</w>
sec tor</w>
s e▁s</w>
ri▁s k</w>
n as
bas▁ ic</w>
ac ter
Pro f
; ll</w>
2 8th</w>
▁mat ches</w>
▁m oon</w>
▁ex istence</w>
▁d i▁
▁cou l▁d</w>
▁c ycle</w>
▁acqu ired</w>
▁Se ocho</w>
▁M BC</w>
s▁ ai▁d</w>
pa▁ ss
j▁ ae</w>
in ev
fam ili▁es</w>
el▁ l
c▁ ity</w>
cl o▁se</w>
bl▁ em</w>
acc o▁rd▁ing</w>
▁w estern</w>
▁op posite</w>
▁adj usted</w>
therm ore</w>
s▁ ing</w>
sus pen
sit es</w>
s pon
ol es</w>
g▁ an
er▁ ation</w>
ea ch
chil d
char g▁es</w>
V i▁ce</w>
P▁ ol
4 7</w>
▁expec tation</w>
▁doc tors</w>
▁Th ough</w>
w▁h er▁e</w>
treat me▁nt</w>
r ail
m or▁
iti▁ ve</w>
em▁ bly</w>
bo▁ ok</w>
C ▁up</w>
2 4th</w>
1 7th</w>
▁util izing</w>
▁prob ably</w>
▁prem iums</w>
▁prec ious</w>
▁n e
▁gre en
▁I D</w>
wi▁ de</w>
w ear</w>
te▁ ll</w>
r▁ athe▁r</w>
j oy
econ o▁my</w>
de ungpo</w>
cor p▁or
a▁l es</w>
L G</w>
DA Q</w>
▁hea ting</w>
▁fir ▁st</w>
▁I sn</w>
u▁ t
u ous</w>
th ou▁gh</w>
s old</w>
s ical</w>
inter n▁
ga▁ ve</w>
em a</w>
ec▁ tion</w>
diff▁ ic
ch i▁ld</w>
areunm ir▁ae</w>
ar i▁
1 6th</w>
▁tar iff</w>
▁prom p
▁practic es</w>
▁manufactur ers</w>
▁f ever</w>
▁cont ained</w>
▁5 ,000</w>
▁ it</w>
v al▁ue</w>
re p▁or
r igh▁ts</w>
qu arter</w>
per▁ sonal</w>
o▁ to</w>
our c▁es</w>
os ing</w>
memb er▁s</w>
con tribu
com i▁ng</w>
c a▁rs</w>
Th▁ at</w>
I sl
B areunmir▁ae</w>
▁ser iously</w>
▁ex actly</w>
▁construc ted</w>
▁L ove</w>
▁H ome</w>
te▁ ch</w>
s▁ ik</w>
ra th▁er</w>
pers o▁ns</w>
p ti▁on</w>
org an▁
i▁ cial</w>
in s▁
du ty</w>
4 6</w>
▁thor ough</w>
▁revis e</w>
▁memb ership</w>
▁eng ineering</w>
▁effec tively</w>
▁cont ain</w>
▁con g
▁b r▁
▁R ight</w>
▁B MW</w>
vi ol▁
s ev▁en</w>
mit ting</w>
in iti
ex ten
ew or
eas e▁d</w>
du▁ ce</w>
Spec i▁al</w>
▁se ts</w>
▁review ed</w>
▁prom ising</w>
▁every day</w>
▁car bon</w>
▁b ath
▁Th e▁re</w>
var▁ ious</w>
pr em
l aw▁
gr i</w>
foll ows</w>
e▁ ff▁
er▁ n
c ili
S o▁ng</w>
G ro▁up</w>
201 4</w>
▁mark ed</w>
▁dis position</w>
▁celebr ate</w>
▁attrac tions</w>
▁Gyeongsang buk</w>
pol ici▁es</w>
il▁ lio▁n</w>
h aps</w>
estab l▁
dam a▁ge</w>
com▁p a▁red</w>
atte▁n t▁ion</w>
act▁ ively</w>
C▁ enter</w>
Ass e▁m
20▁1 9</w>
▁su fficient</w>
▁har mony</w>
▁h ired</w>
▁Th ai</w>
▁@ ▁
u▁ g
t▁ oo</w>
p ass</w>
mod▁ el</w>
manag e▁ment</w>
itt▁ en</w>
eg ae</w>
e ul</w>
ai▁n s</w>
ad▁ v
S NS</w>
▁incen tives</w>
▁h ire</w>
▁cultur es</w>
ul▁ d</w>
s il
ow▁ ing</w>
ig▁h ts</w>
b▁ ur
an▁ cial</w>
Jus ti▁ce</w>
1 1▁
▁sav ings</w>
▁Pri ze</w>
st ep</w>
proc ed
or i▁ty</w>
m etropolit▁an</w>
k e▁t</w>
is t▁er</w>
in tr▁
fi▁l m</w>
ere in
ang ible</w>
T his</w>
Ph one</w>
▁t▁ he</w>
▁sim ultan
▁par ▁
▁ir reg
▁equ ivalent</w>
▁c a▁n</w>
▁achiev ements</w>
▁S um
▁K ookmin</w>
▁C are</w>
spe▁ ed</w>
sh ip
s ter</w>
pr ices</w>
m ust</w>
i▁ er</w>
diff i▁c
contro ver▁sy</w>
J a▁p
0 .
▁spec t
▁nur sing</w>
▁help ful</w>
▁g ifts</w>
▁ear n</w>
▁assaul ted</w>
▁ar gue</w>
▁Wo ori</w>
▁T uesday</w>
▁R ed</w>
▁Iran ian</w>
▁@▁ -@</w>
▁6 00</w>
▁2 7
w ould</w>
v in▁g</w>
l▁ ook</w>
in su▁r
ches tra</w>
a▁ ti▁
avil ion</w>
ai▁ l
Sec ur
Ch u▁ng</w>
4 4</w>
▁observ ed</w>
▁mon itor</w>
▁b eat</w>
▁Cel sius</w>
v el</w>
resid enti▁al</w>
rel eased</w>
pop ul▁
pl ic
op hy</w>
oot ball</w>
on a▁l</w>
me▁ et▁ing</w>
h ol▁
gr ade</w>
d iv▁
cus e</w>
anm unj
Indus tri▁al</w>
H a▁n
2 9th</w>
▁str onger</w>
▁spec ies</w>
▁rec ession</w>
▁charg ing</w>
▁&a▁ pos;s</w>
tr ip</w>
s▁m all</w>
s▁ ung</w>
s o▁ng</w>
ott en</w>
ot ten
or es</w>
n ig▁ht</w>
ir ty</w>
ios ity</w>
dis p
dem a▁nd</w>
cer tif
M▁ ar
G A</w>
▁par ks</w>
▁inst alling</w>
▁gradu ates</w>
▁fri ed</w>
▁con grat
▁com fort</w>
▁ch urches</w>
▁R en
▁M etropolit▁an</w>
ur ▁al</w>
to▁ ur
rev ital
ove▁r seas</w>
ic als</w>
h our</w>
es el</w>
emb l▁y</w>
e ing</w>
competi ti▁on</w>
ch ar▁
U▁ .S.</w>
▁strateg ies</w>
▁f ab
▁ass embly</w>
▁Jeon nam</w>
um es</w>
s anc▁
ret u▁rn</w>
r a▁n
lo▁ st</w>
indus▁ trial</w>
househ ol▁ds</w>
est ors</w>
W h▁
St a▁te</w>
Gover ▁n
Ass ociation</w>
▁the i▁r</w>
▁mar tial</w>
▁com ment</w>
▁c utting</w>
▁Re uters</w>
▁C ard</w>
sh ap▁ed</w>
p▁ port</w>
ploy ed</w>
pl anni▁ng</w>
occ up
ih eung</w>
eo▁ l</w>
Comm▁ it▁tee</w>
▁pen insula</w>
▁cap abilities</w>
▁G un</w>
v ate</w>
sib ilities</w>
si k</w>
se▁ e</w>
r es</w>
ow ns</w>
h▁ t</w>
f u
er ial</w>
em en▁ts</w>
a os</w>
S chool</w>
P l▁
M i</w>
J oon</w>
▁prefer ential</w>
▁h ospital
▁h an
▁Rep ubl
▁L ake</w>
▁G reat</w>
uc tu
truc tion</w>
tic ▁e</w>
s▁h ou▁ld</w>
s▁ ay</w>
sel ▁f</w>
re plac
o ti▁
ne w▁
loc ▁
diff e▁r
ch a▁n</w>
Su per
▁u ▁
▁post pon
▁mis sed</w>
▁m ine</w>
▁m icro
▁l ot
▁equ ity</w>
▁b on
▁P C</w>
▁Co ach</w>
ver s▁
s▁t ud
r▁ a
po▁ in
or▁ ted</w>
l ives</w>
i▁ n▁
h ou▁rs</w>
g▁ roup</w>
f▁ er</w>
ent l▁y</w>
en c▁ed</w>
c or▁
am e▁s</w>
K▁or▁ ea</w>
H i▁gh</w>
&qu ▁o▁t;</w>
▁cl othing</w>
▁an cient</w>
▁Str ategy</w>
▁M oo</w>
▁F TC</w>
w al
u▁ k</w>
sur v▁ey</w>
pro j▁
oo ked</w>
ey es</w>
con nec
c ent
N o▁rth</w>
Intern at▁ional</w>
▁sl eeping</w>
▁notif ication</w>
▁k illing</w>
▁hop ed</w>
▁gir ls</w>
▁ab sor
▁H ist
▁F ederal</w>
▁Comm and</w>
ur g
so▁ ld</w>
pres cri
il ▁ed</w>
h▁ ealth</w>
fl edg▁ed</w>
am un</w>
O K</w>
M▁ inis
Hy und▁ai</w>
C oll
▁war ned</w>
▁viol ated</w>
▁typ ical</w>
▁moun tains</w>
▁ir on</w>
▁fr▁ ont</w>
▁crow ded</w>
▁att or
▁Sp anish</w>
▁2 3
p▁os ▁
it ain</w>
e▁nt al</w>
eng er</w>
bl es</w>
b illion</w>
al ▁e</w>
Wor ld</w>
A D</w>
▁w ▁h
▁sh▁ all</w>
▁mak eup</w>
▁earn ings</w>
▁U N</w>
▁Tur kish</w>
▁T ea
▁Presid ential</w>
▁Han a</w>
▁3 7</w>
with out</w>
w ak</w>
oper ati▁ng</w>
m▁ us
lawmak ▁er</w>
h▁ wa</w>
ener gy</w>
du▁r in▁g</w>
cit▁ iz
c us▁
bur s
and i▁ng</w>
H ae</w>
▁tit led</w>
▁six th</w>
▁fac es</w>
▁achiev ement</w>
z h
tr illi▁on</w>
t ments</w>
st▁ ar
spec i
prov id▁ed</w>
p ir
ma▁ d▁e</w>
ie▁ f</w>
ic le</w>
b er▁s</w>
all et</w>
ad d▁
Co▁m m
5 ,000</w>
3 0th</w>
&a▁p▁os ;▁s</w>
▁t ot
▁rem in
▁orig in</w>
▁extr a
▁cas ualties</w>
▁break fast</w>
▁Ac ts</w>
▁200 6</w>
ur▁ ing</w>
s ign▁
r▁ u
pr▁ ep
partic i▁p
ous ▁e</w>
op port▁
op en▁ed</w>
ing dom</w>
Ce▁n ter</w>
▁un known</w>
▁rob ot</w>
▁pres erv
▁p ow
▁contr ary</w>
▁co al</w>
▁bal anced</w>
▁a g▁
▁Th eir</w>
▁Ch osun</w>
u▁ le</w>
ma▁ il</w>
ee th</w>
d e▁rs</w>
c▁ are</w>
co▁ un▁
b▁ us</w>
additi on▁al</w>
Tr ump</w>
▁supplem entary</w>
▁s ounds</w>
▁resear cher</w>
▁ph r
▁inten sive</w>
▁d ress</w>
▁brea king</w>
st o▁re</w>
rec on
n ia</w>
mis si▁on</w>
i▁n to</w>
iqu es</w>
f ic
en ty</w>
devel▁ op</w>
dec rea
con f▁
app ing</w>
ac▁ h</w>
▁w illing</w>
▁fl u
▁eas ing</w>
▁chea p</w>
▁Sh anghai</w>
▁S elf</w>
▁Olymp ic</w>
▁M apo</w>
▁20 ,000</w>
w el▁l</w>
to▁ ld</w>
s▁ ts</w>
streng th
i el
expl ain▁ed</w>
ell i▁ng</w>
Un i▁
S am▁
P resident</w>
▁per su
▁m o▁
▁go▁ in▁g</w>
▁chr onic</w>
▁c ute</w>
▁c ook</w>
▁Hy o</w>
▁ ti▁on</w>
tr ade</w>
si tion</w>
ph ys
offic ▁e</w>
mi▁ll i▁on</w>
mid d▁le</w>
j un▁g</w>
ijeong bu</w>
d▁ am
d rew</w>
c▁ ess</w>
coun ts</w>
ch all
c am
an ches</w>
K o▁r
▁spea king</w>
▁shor tly</w>
▁re ference</w>
▁pre ven
▁pr ay</w>
▁perc eption</w>
▁deleg ated</w>
▁child birth</w>
▁arti stic</w>
▁Environ mental</w>
you▁ th</w>
w ri
u▁r es</w>
t▁ri es</w>
tr av▁
t arg
rup ted</w>
par ki▁ng</w>
ot▁ te</w>
organiz ▁ed</w>
il▁l egal</w>
f▁ ter</w>
ed▁ ly</w>
augur ation</w>
In t▁ern
2 5th</w>
▁util ization</w>
▁lik es</w>
▁fru its</w>
▁den ied</w>
▁M c
▁Fur thermore</w>
si t▁e</w>
re▁ en</w>
ref e▁r
om▁ y</w>
itt▁ le</w>
investig▁ ation</w>
i us</w>
hist o▁ry</w>
gh▁ t</w>
ex▁ c
ee ing</w>
e ously</w>
contr▁ ol</w>
cl ▁e</w>
a▁l k</w>
a▁ n▁
S ec▁
Ch ang
▁rest ore</w>
▁instruc tors</w>
▁exc eeding</w>
▁doc um
▁conf usion</w>
▁compl icated</w>
▁ar ▁e</w>
▁an c
▁S us
▁Da ewoo</w>
▁B rexit</w>
import a▁nt</w>
fl oor</w>
e▁ et</w>
excell e▁nt</w>
end ant</w>
c▁ o
c oll▁
bu▁ s
a▁ round</w>
av ed</w>
ativ ▁es</w>
at ings</w>
Sp▁ ec
Dep artme▁nt</w>
B e
▁sol ving</w>
▁s c▁
▁rum ors</w>
▁o x
▁i s▁
▁for get</w>
▁deleg ation</w>
▁c and
▁Song pa</w>
▁11 9</w>
un ch</w>
u t▁e</w>
st able</w>
p▁er son</w>
pr▁ov ide</w>
o ons</w>
me▁ eting</w>
i▁ onal</w>
iv ▁er</w>
introduc ▁ed</w>
ic▁ ts</w>
c anc▁
bit r
G a▁ng
▁t un
▁reflec ts</w>
▁pregn ant</w>
▁perspec tive</w>
▁neigh bors</w>
▁el ements</w>
▁W ith
▁T aek
▁For ce</w>
▁Elec tion</w>
ul n
produ▁c t</w>
po▁ s▁
pa▁r ty</w>
ot▁ e</w>
os ted</w>
op eration</w>
n ucle▁ar</w>
lis ▁
for ced</w>
ev en▁ts</w>
e el
do▁ or</w>
b▁l em</w>
az ▁
appro priate</w>
ak ed</w>
S oon</w>
E ducation</w>
▁propos als</w>
▁ph ilos
▁over whel
▁grad uation</w>
▁furn iture</w>
th▁ eir</w>
per cent</w>
negoti atio▁ns</w>
l▁ ast</w>
fr aid</w>
facil i▁ty</w>
en s▁
ai▁ ls</w>
▁suspen d</w>
▁reflec ting</w>
▁prom otional</w>
▁mut atis</w>
▁h ole</w>
▁fin als</w>
▁but ton</w>
▁M an</w>
ugg age</w>
ti ms</w>
ow e▁d</w>
ou ts</w>
l at
i▁c k</w>
if ier</w>
h oon</w>
end ers</w>
do▁ esn</w>
dem onstr
cont▁ in
af tern
D aej
Ch ung</w>
1 2▁
▁pos ts</w>
▁m arg
▁fos tering</w>
▁Lun ar</w>
▁Is ra
▁5 5</w>
r▁ ec▁
il i▁
gener al</w>
frastruc tu▁re</w>
e▁n e</w>
d▁ ep
con di▁
ch air
a ze</w>
T our
M yung</w>
▁un ions</w>
▁med al</w>
▁g ▁
▁en ds</w>
▁busin ess
▁advis ory</w>
▁accoun ted</w>
▁Ye ouido</w>
▁Som etimes</w>
▁S aem
▁Mar ine</w>
▁Bel g
▁Ar gent
wh o▁se</w>
v ▁es</w>
s▁y s▁tem</w>
r▁ o
m▁ ost</w>
mark ets</w>
e▁r a</w>
e▁n ▁
et ti▁ng</w>
d▁ el
add it▁ional</w>
Y e▁
S er▁
M y
▁st artups</w>
▁sh el
▁semiconduc tors</w>
▁qu ar
▁neg lec
▁mom entum</w>
▁l iber
▁extra ordinary</w>
▁dr inks</w>
▁def icit</w>
▁U n</w>
▁Cor p.</w>
x i</w>
ti n</w>
sec tion</w>
pos▁ it▁ion</w>
pers ons</w>
parag ra▁ph</w>
loc k</w>
iz za</w>
inter pre
ific ally</w>
g▁row th</w>
exper ▁ts</w>
en si▁ve</w>
el ine</w>
cr isis</w>
coun c▁il</w>
announ c▁
R ec
O n
▁valu able</w>
▁un employment</w>
▁r ains</w>
▁pro ve</w>
▁mut andis</w>
▁m igr
▁j u
▁hom epage</w>
▁dea ths</w>
▁c o▁uld</w>
v i▁s
tr ans▁
str ateg
st ep
per i
or i▁g
od aemun</w>
m on</w>
develop▁ ed</w>
c old</w>
b a▁nd</w>
appl i▁ed</w>
ang ▁e</w>
a eb
L ib▁
Ch airpers▁on</w>
▁viol ating</w>
▁re hab
▁n eck</w>
▁m echan
▁des per
▁N o
w▁ a</w>
tr av
suspec t▁ed</w>
off ee</w>
n ear</w>
m▁ .</w>
jec t▁s</w>
in spe▁c
f ound
e▁n sive</w>
estab l
en▁ ti
dis clos
d eok</w>
be t▁ween</w>
b an
Y eon
S oci▁al</w>
L and</w>
G roup</w>
Def en▁se</w>
Dae▁ gu</w>
A n▁
19 9
▁week ends</w>
▁mat h</w>
▁g all
▁col orful</w>
▁col onial</w>
▁c igar
▁accommod ation</w>
▁D r.</w>
▁Comp anies</w>
▁Chung nam</w>
▁C SAT</w>
▁1 20</w>
st yle</w>
r i▁ce</w>
publ i▁c</w>
iz ure</w>
iz a▁tion</w>
fir ▁
f und</w>
e▁n dly</w>
des i▁gn</w>
ch e▁ck</w>
a▁p p▁
av ▁e</w>
W ▁h
M an
H er
▁transl ation</w>
▁th i▁nk</w>
▁mov es</w>
▁join ing</w>
▁har v
▁d ur
▁c elebrities</w>
▁bo oth</w>
▁Ye osu</w>
t ex
se e▁ms</w>
res ults</w>
pr▁ es▁
oper at▁ed</w>
min utes</w>
in fl▁
eff e▁ct</w>
bri ef
▁t end</w>
▁num erous</w>
▁led ger</w>
▁eng age</w>
▁an ger</w>
▁Prot ection</w>
▁Ad ministrative</w>
w id
sti▁ tu
sec▁ urity</w>
r▁ ole</w>
int▁er▁ est</w>
form ati▁on</w>
em ploy▁
d u▁st</w>
Sam sung</w>
G im
▁correc tion</w>
▁coll ea
▁ac compl
▁Br anch</w>
tak ▁en</w>
s▁ k
pr▁ ot
m▁ obile</w>
m oun
i▁t al</w>
di▁ n▁g</w>
R o▁
Or dinance</w>
J oo</w>
F▁ or
Eng lish</w>
▁pas ses</w>
▁man power</w>
▁equ ality</w>
▁c able</w>
▁Gang dong</w>
▁D av
▁20 22</w>
sti ll</w>
r▁ an</w>
r ice</w>
p resident</w>
ne▁ ws</w>
lo om
i▁d ent</w>
ez uel
esti▁ g
estab li▁
de f▁
bec o▁m
▁reg ularly</w>
ut ation</w>
t▁ ors</w>
requ ir
pos s▁
on o▁my</w>
n ational</w>
m ay▁or</w>
execu ti▁ve</w>
aes ong</w>
M▁ in▁
2 2nd</w>
▁w ashing</w>
▁system atic</w>
▁sh ock</w>
▁rel ocation</w>
▁pl ate</w>
▁fin alized</w>
▁W ell</w>
▁For um</w>
▁D ream</w>
▁C N
▁3 D</w>
▁3 9</w>
▁&qu ▁o▁t;</w>
vis iti▁ng</w>
s▁ ite</w>
resid ent▁s</w>
p▁ re
on ers</w>
iv ▁es</w>
fi▁ ed</w>
fa▁m ily</w>
2 n▁d</w>
▁minim ize</w>
▁kn owing</w>
▁fl oo
▁em otions</w>
▁d um
▁correspon ding</w>
▁advis ed</w>
▁Sup er</w>
▁I m</w>
▁Gyeong ju</w>
s af
ri ous</w>
p▁er s▁on</w>
o▁w er</w>
m ent
l▁ ion</w>
f ar▁
c▁h an▁ge</w>
bi▁ll i▁on</w>
a▁b ou▁t</w>
K T</w>
B ar
▁tri als</w>
▁tal ented</w>
▁succ eed</w>
▁s ugar</w>
▁f at</w>
▁diagnos ed</w>
▁destro yed</w>
▁Mr .
shar i▁ng</w>
o b▁er</w>
l ev
g▁ ive</w>
ex i▁st
ett es</w>
ea st</w>
ch o
ch airpers▁on</w>
ak ▁e</w>
A cc
▁stud io</w>
▁sp ir
▁sac rif
▁norm ally</w>
▁don ations</w>
▁bo xes</w>
▁Per sons</w>
ti▁v al</w>
tion ally</w>
p▁l ease</w>
i▁s ter</w>
e▁ al</w>
ett e▁r</w>
eph one</w>
ea▁ st</w>
T O</w>
▁sol utions</w>
▁op tim
▁n ovel</w>
▁gu ys</w>
▁e n▁
▁cont acted</w>
▁b e▁
▁Inspec tion</w>
st an</w>
serv ▁ed</w>
po▁r ts</w>
pl ant</w>
j▁ oo</w>
gover▁n me▁nt</w>
fac t</w>
en▁ ded</w>
ef▁f o▁rts</w>
comm ission
au th▁
ass oci
G an▁g
B ank</w>
A ▁h
5 G</w>
▁wel come</w>
▁pur sue</w>
▁ordin ances</w>
▁k eeps</w>
▁dec eased</w>
▁ch at</w>
▁b oss</w>
▁a ro
▁D aily</w>
wh er▁e</w>
v ▁ed</w>
t ude</w>
s▁ is</w>
stor es</w>
p▁ar ty</w>
ket ball</w>
illing ness</w>
if▁ ic
eri a▁ls</w>
ea▁ l
e z</w>
d▁ it</w>
ag ue</w>
Ch in▁a</w>
▁ver ify</w>
▁inv esting</w>
▁dem anding</w>
▁P res
▁Comp etition</w>
th ▁s</w>
s tic
s ay▁ing</w>
r▁ oom</w>
par t▁y</w>
ou ths</w>
oll ywood</w>
n oc
m▁ on▁
lif ▁e</w>
ho▁ l▁d</w>
differ ent</w>
c▁ ame</w>
at▁ t
ab▁ il▁ity</w>
S c▁h
P▁ ro
▁uni form</w>
▁th o▁se</w>
▁sub contrac
▁st y
▁so ftware</w>
▁short age</w>
▁m on▁
▁circ le</w>
▁P or
▁Enter tainment</w>
▁Bur eau</w>
tr ust</w>
minim ▁um</w>
mat ters</w>
ev en▁t</w>
es th
ent▁ r
Pol i▁cy</w>
Ko▁ re
C l▁
Bl ue</w>
▁remov al</w>
▁rel ax
▁qu iet</w>
▁ma them
▁libr aries</w>
▁h asn</w>
▁ag gres
▁Sh ould</w>
yr ics</w>
ul a▁r</w>
t yp
s▁ tr▁
pre h
m▁ aking</w>
m ly</w>
long ed</w>
i efs</w>
ex c▁
ewor thy</w>
develo▁p m▁ent</w>
d ivid
d em▁
confir m▁ed</w>
bui▁l t</w>
an tial</w>
ak en</w>
Sept emb▁er</w>
P S</w>
▁vir tual</w>
▁rel ▁
▁in ner</w>
▁immigr ants</w>
▁hom etown</w>
▁fil es</w>
▁dis charge</w>
▁O p
xim ately</w>
un▁ g
ul ates</w>
sup p▁ly</w>
str ong</w>
pas s▁ed</w>
om ▁e</w>
form ing</w>
e▁as y</w>
e▁ar ch</w>
ex erc
con▁ cer
ch ec
at o▁rs</w>
G od</w>
D▁ ae</w>
▁reg ret</w>
▁per mit</w>
▁p anel</w>
▁competi tions</w>
▁c rew</w>
▁c oin
▁b en
▁Prosec utor</w>
pre▁ s
po▁l icy</w>
p sych
ow in▁g</w>
n i</w>
in▁ come</w>
i o▁n
e▁ ed</w>
avoid able</w>
Comm issi▁on</w>
▁ship ped</w>
▁off line</w>
▁legisl ative</w>
▁exam ples</w>
▁d ealing</w>
▁T ake</w>
▁F C</w>
▁B road
▁5 0,000</w>
ul▁ ture</w>
ta in▁
sing le</w>
s afe</w>
prec ed
id arity</w>
fem a▁le</w>
f un</w>
expen s▁es</w>
c▁h a▁nge</w>
an ymore</w>
accor dan▁ce</w>
Y a▁ng</w>
Oper ati▁on</w>
M ov
▁us eful</w>
▁un clear</w>
▁sol o</w>
▁r ises</w>
▁leg s</w>
▁i l</w>
▁h n
▁b id</w>
▁L ater</w>
▁K BS</w>
▁G e
we▁l fare</w>
v arious</w>
the▁ se</w>
m emor
increa si▁ng</w>
im pl▁
c▁ aus
cooper ation</w>
cons ul
aw a</w>
ar▁ d
ang yo</w>
ac▁ ts</w>
ac ti▁on</w>
O S</w>
A ▁u
▁med iation</w>
▁larg ely</w>
▁design s</w>
▁ac knowl
▁U. N.</w>
▁U l
▁Hy ung</w>
▁G en
▁Am bassador</w>
▁ atio▁n</w>
ye▁ ars</w>
ou t▁
o ked</w>
it ably</w>
inc re▁
an t▁
a it</w>
Pres▁ iden▁t</w>
O c▁
F u▁nd</w>
5 3</w>
5 0
. m▁.</w>
▁ten sion</w>
▁t end
▁sugg est</w>
▁stom ach</w>
▁sav ed</w>
▁restruc turing</w>
▁Sch ol
▁Conf ederation</w>
▁Cl ub</w>
t▁w ee▁n</w>
pur po▁se</w>
pen ed</w>
of▁ f</w>
k▁ i</w>
ic ▁ed</w>
evalu ati▁on</w>
es is</w>
bec ome</w>
a▁ us▁e</w>
J os
▁rev eal</w>
▁mo thers</w>
▁man ual</w>
▁inter views</w>
▁immedi ate</w>
▁dis mant
▁G ye
ym nas
reg i▁on</w>
our▁ th</w>
mark e▁t</w>
l▁ aw
in tro▁
i o
h▁ ope</w>
gl i▁sh</w>
fl o
c ut</w>
b udg
aver a▁ge</w>
an▁ ces</w>
M ark
▁w ou▁ld</w>
▁stor ed</w>
▁sign al</w>
▁sc ulp
▁neighbor ing</w>
▁S e▁
▁M yeong</w>
▁L eg
▁G umi</w>
y m</w>
view ers</w>
sp re▁ad</w>
ro o▁m</w>
progr am</w>
pre▁ vious</w>
or able</w>
m▁ p
ins egae</w>
h▁ an</w>
gh ts</w>
fr i▁
contin u▁ed</w>
con d▁uc
b at
P o
J a▁e</w>
▁with draw</w>
▁t ight</w>
▁st ake</w>
▁pos ting</w>
▁op tion</w>
▁m ent
▁issu ing</w>
▁dist inc
▁dep ends</w>
▁dang er</w>
▁acc es
▁S im
▁Eng ineering</w>
tr▁ ies</w>
ti m</w>
ocol ate</w>
e▁n ing</w>
e▁n ed</w>
ef▁ t</w>
ar ▁t</w>
Ad minis
▁wh i▁le</w>
▁par ent</w>
▁impres sion</w>
▁gr at
▁form al</w>
▁fac ilit
▁exchang ed</w>
▁S quare</w>
w est</w>
str eam</w>
spe▁ cial</w>
s ea▁
r▁ ight</w>
loo ki▁ng</w>
fi el
fa▁ ir</w>
et ely</w>
e ff▁
ca▁ st</w>
cap it▁al</w>
c y
a▁ir s</w>
Sh in
O P</w>
H ouse</w>
Ar ticle</w>
&apos; m</w>
▁rep ayment</w>
▁rehab ilitation</w>
▁op ponent</w>
▁inf ants</w>
▁flo ors</w>
▁extrem ely</w>
▁equ al</w>
▁coun ter</w>
▁conn ect</w>
▁attemp ted</w>
▁Per iod</w>
▁Jin ju</w>
▁H eo</w>
▁Ex cuse</w>
▁B it
u is
t▁ ant</w>
over ing</w>
op▁ ment</w>
lo ad</w>
le▁ ading</w>
i▁st▁ ry</w>
implem ent
h uman</w>
g ok</w>
bu▁ d
a▁ ff
am i</w>
ac▁ k
W a</w>
Se ok</w>
S elf</w>
Q u
▁w rap
▁slow ly</w>
▁per i
▁p edestr
▁int ellectual</w>
▁conc rete</w>
▁con gl
▁ban king</w>
▁S a
▁Particip ants</w>
▁H appy</w>
or mit
m ember</w>
loom berg</w>
li▁ st</w>
h igh▁er</w>
eti me</w>
e ers</w>
a▁r k</w>
a▁m ong</w>
ap yeong</w>
▁t astes</w>
▁politici ans</w>
▁pat tern</w>
▁identi fication</w>
▁f ewer</w>
▁f eared</w>
▁dismis sal</w>
▁des k</w>
▁apolog ize</w>
▁W at
▁Reg ulations</w>
▁J ongno</w>
▁Con s
▁Budd ha</w>
w ife</w>
ul ty</w>
the▁ me</w>
t ou▁r
s▁ al
su▁r es</w>
sub je▁ct</w>
s oo▁n</w>
ou▁ s
olog ic▁al</w>
m▁ i</w>
mat h</w>
d im
com▁p any</w>
comp▁an i▁es</w>
anc ement</w>
Ord in▁
Lea g▁ue</w>
L ED</w>
G overnor</w>
▁th ick</w>
▁prim ary</w>
▁gu ilty</w>
▁collabor ation</w>
▁bu yer</w>
▁autom obile</w>
▁T ell</w>
▁J ob</w>
▁B o</w>
▁4 2</w>
u▁n de▁r</w>
u ff</w>
ocr▁ atic</w>
conv en▁
a▁mp ;</w>
Dem oc▁ratic</w>
201 3</w>
▁t or
▁r atings</w>
▁o ff▁
▁minis tries</w>
▁f are</w>
▁er r
▁cons ol
▁br anches</w>
▁M aybe</w>
▁Ch ae</w>
▁20 00</w>
ve▁ h
v al</w>
tr ical</w>
se▁ nd</w>
re▁ su▁l
res ▁p
reg a▁r
ld wide</w>
ke▁ ep</w>
institu tio▁ns</w>
h yeon</w>
g ove▁rn
expl ained</w>
et o</w>
e ze</w>
e ye</w>
d▁ er
dec ision</w>
d ur
con vers
cand i▁d
ag i▁ng</w>
ac ti▁ng</w>
D ec▁
▁revital ization</w>
▁gr ound
▁el ev
▁di versi
▁b ill
▁argu ment</w>
▁al on▁g</w>
▁S illa</w>
▁J am
▁4 8</w>
wo▁ ok</w>
un gri</w>
tra ff▁ic</w>
s un
s o▁ns</w>
par ents</w>
p rivate</w>
or▁ ity</w>
od a</w>
o on
m▁ ents</w>
m un</w>
i▁n ance</w>
h▁ yun</w>
h im
ex pl▁
anc er</w>
S eptember</w>
F o▁od</w>
▁t ools</w>
▁st ands</w>
▁s i▁nce</w>
▁recon struction</w>
▁purch ases</w>
▁psych ological</w>
▁pass port</w>
▁or g
▁ob st
▁dis pos
▁b anned</w>
▁C amp
▁B ol
▁200 5</w>
u▁n ity</w>
qu ar▁
p▁l eas▁e</w>
or ders</w>
m uc▁h</w>
l ands</w>
is▁ is</w>
ir able</w>
im u▁m</w>
ex▁ pl
di▁ ed</w>
comp▁ any</w>
c elebr
ar ch
St ates</w>
D es
1 0▁
▁urg ently</w>
▁u tive</w>
▁s ustainable</w>
▁W all</w>
▁O k
▁KOS PI</w>
un ded</w>
og an</w>
mob i▁le</w>
c and▁
ber ty</w>
ar▁ ts</w>
ad mi▁n
S y
Je o▁ng</w>
Econom ▁ic</w>
▁vess els</w>
▁trea sury</w>
▁qu arters</w>
▁M anch
u it</w>
s ports</w>
m▁ar▁ ket</w>
establish me▁nt</w>
ec tions</w>
del iver
ac t▁or</w>
S ▁u
En forceme▁nt</w>
▁objec tion</w>
▁mid st</w>
▁im pris
▁ch ances</w>
▁ass istant</w>
▁Candid ate</w>
w el▁
ul ▁es</w>
re▁g ular</w>
professi on▁al</w>
op pi▁ng</w>
ob ong</w>
l▁ik▁ ely</w>
lea▁ st</w>
j oo▁n</w>
j a▁e</w>
is ms</w>
g rou▁nd</w>
en▁ ted</w>
ag en▁cy</w>
Gy▁eong gi</w>
C u▁l
Amer ic▁an</w>
▁un likely</w>
▁o ve▁r</w>
▁mill ions</w>
▁W inter</w>
▁Ven ezuel
▁Auth ority</w>
vid eo</w>
un i▁
som ▁e</w>
sec urity</w>
s ep
ow ners</w>
ot ers</w>
org a▁n
of▁f ice</w>
n ati▁onal</w>
exp e▁ct▁ed</w>
er ty</w>
c ould</w>
am ent</w>
al rea▁dy</w>
R oh</w>
Inv est
▁s and
▁grow s</w>
v▁ al
tic▁ le</w>
s▁ im
ro ads</w>
rais i▁ng</w>
prosec uti▁on</w>
ob ▁s</w>
it o▁rs</w>
h▁ erein
de▁ m
d ir▁
c▁ ut</w>
cus t▁om
at ell
ar row
ar i▁ng</w>
N a</w>
Jap a▁n
I P</w>
D on
▁un avoidable</w>
▁sex ually</w>
▁pass age</w>
▁or dering</w>
▁l isting</w>
▁fr ustr
▁conf ident</w>
▁V is
▁An gel
▁2 4
s▁ elf</w>
p▁ res
poin ts</w>
play e▁rs</w>
per f
o▁ i</w>
o ing</w>
n ic</w>
me▁m bers</w>
is ▁e</w>
f av▁
a▁ r▁
a ju</w>
S cien▁ce</w>
Ass oci▁
▁sub mission</w>
▁pas tor</w>
▁mov ements</w>
▁l uggage</w>
▁hand led</w>
▁en v
▁democr acy</w>
▁consult ations</w>
▁com ▁
w ar▁d</w>
r ain</w>
ow ned</w>
f igh
et es</w>
consec u
c a▁rd</w>
an oth▁er</w>
▁th e▁y</w>
▁st ating</w>
▁pr ide</w>
▁not eworthy</w>
▁h orse</w>
▁contain er</w>
▁a d▁
▁Swed en</w>
▁Jeon buk</w>
win ni▁ng</w>
ve h▁
tr an▁s
s▁c ale</w>
s▁ ome</w>
sh or
l t;</w>
l ow▁er</w>
l ig▁ht</w>
h and</w>
es p
devel▁ op
consid er
ai▁n ing</w>
ai▁ gn</w>
L ot▁te</w>
J anu
E con
5 ▁th</w>
▁w ouldn</w>
▁w illingness</w>
▁stea dy</w>
▁rad io</w>
▁lea ked</w>
▁hop es</w>
▁grand mother</w>
▁evac u
▁chea per</w>
▁acc ept
▁For tunately</w>
▁An yang</w>
u▁r ity</w>
ri d</w>
p▁ol▁ icy</w>
pl▁ ay
m▁ eans</w>
fam iliar</w>
d▁ uring</w>
critici z▁ed</w>
b rea▁
as tically</w>
ai▁r ma▁n</w>
acc ident</w>
ac ti▁v
O C</w>
N A</w>
Li▁ berty</w>
B a▁
&a pos▁;
▁wea pon</w>
▁vis ible</w>
▁t eeth</w>
▁prohib ited</w>
▁d e</w>
▁amoun ts</w>
▁U pon</w>
▁Th eater</w>
▁Represent atives</w>
▁3 0,000</w>
▁&a pos;t</w>
tr i▁
requ ▁
j o▁on</w>
ins eng</w>
ill er</w>
i ances</w>
g as</w>
fun ds</w>
cl ub</w>
Y u</w>
D em▁
Ch i▁ef</w>
▁tri ps</w>
▁t igh
▁st ops</w>
▁s is
▁s an
▁re wards</w>
▁n ob
▁law yers</w>
▁en ters</w>
▁che ering</w>
▁20 0,000</w>
yst e▁m</w>
wr itt▁en</w>
tw ave</w>
si▁ ze</w>
rup ti▁on</w>
red u▁ce</w>
rec e▁nt</w>
pos i▁
ph o▁to</w>
p ack
ok do</w>
oc ket</w>
me▁m b▁ers</w>
id en▁ts</w>
ic tion</w>
c ro
be▁ fore</w>
applic ati▁on</w>
ap artme▁nt</w>
S▁e ou▁l</w>
St ati▁on</w>
&ap▁os;▁ re</w>
▁war eh
▁underst ood</w>
▁u ally</w>
▁surv ival</w>
▁subst ances</w>
▁stat ue</w>
▁st ro
▁res ignation</w>
▁renew able</w>
▁pat terns</w>
▁n ations</w>
▁cam eras</w>
▁attemp t</w>
▁Rev olution</w>
w▁ an▁t</w>
v▁ ice</w>
transport ati▁on</w>
th or
s ens
re fl
pro▁ ject</w>
pa▁ ss</w>
partic▁ip▁ ate</w>
om▁ an</w>
og▁ n
m▁ any</w>
j oint</w>
itiv ely</w>
insur an▁ce</w>
impo▁r tant</w>
gl obal</w>
dr ama</w>
di▁ d</w>
aftern o▁on</w>
▁sugg ests</w>
▁neg ligence</w>
▁depar ture</w>
▁Rev iew</w>
w ri▁
vill a▁ge</w>
sl etter</w>
s ingly</w>
pro▁ c
on▁ ic</w>
is▁ h</w>
gover▁n m▁ent</w>
di e</w>
b▁ ro
ant a</w>
ali for
ai▁ l</w>
Na▁ tional</w>
7 ▁th</w>
5 8</w>
▁vir tually</w>
▁t ough</w>
▁s essions</w>
▁res ource</w>
▁reorganiz ation</w>
▁peti tions</w>
▁ch em
▁b it
▁Lea der</w>
▁Kum ho</w>
▁G M</w>
▁5 0
us ive</w>
und ae</w>
pos t
investig▁ atio▁n</w>
ge▁t ting</w>
fl u
fac ts</w>
est a▁te</w>
aud▁ it</w>
ap art
a .▁m.</w>
M al
▁U ijeongbu</w>
▁S il
▁Pri or</w>
um a</w>
prom ise</w>
pro mo
press way</w>
in t▁o</w>
en▁ tly</w>
bo a▁rd</w>
b ar
a▁r i▁
Min i▁st▁ry</w>
Associ atio▁n</w>
&▁ap▁os ;t</w>
▁r ow</w>
▁g as
▁crea tes</w>
▁c iting</w>
▁bur ned</w>
▁b o▁
▁ar ch
▁US D</w>
▁B loomberg</w>
▁B er
ut▁ ure</w>
inv es▁t
ind u▁
il▁l i▁on</w>
h ap▁
fri e▁ndly</w>
eval u▁
d ed
c▁ le</w>
cl ock</w>
Techn olo▁gy</w>
Ch airman</w>
A▁h n</w>
&a▁ po▁s▁
▁thous and</w>
▁gen re</w>
▁cou ples</w>
▁compens ate</w>
▁br inging</w>
▁Dong daemun</w>
▁D e
▁3 00,000</w>
wh▁ eth▁er</w>
t▁ en
s▁y st▁em</w>
m yung</w>
is t▁s</w>
ial ▁s</w>
exi▁st ing</w>
er i▁es</w>
d▁ ays</w>
circ umst
b▁ et▁ter</w>
be▁ li
au▁ lt</w>
ast al</w>
▁wh▁ ere</w>
▁mach ines</w>
▁loc ations</w>
▁inten se</w>
▁eg gs</w>
▁character istic</w>
▁attrac tion</w>
▁K inderg
w▁ een</w>
w alk</w>
t t
sh o▁rt</w>
sh a▁r
sa▁ f
m an▁y</w>
gr a▁
en▁ ess</w>
e th
d in▁gs</w>
Su w▁on</w>
R A</w>
M A</w>
▁res ume</w>
▁requ esting</w>
▁or ganic</w>
▁interpre tation</w>
▁guarant eed</w>
▁for g
▁claim ing</w>
▁a fraid</w>
▁Y e</w>
▁Sh insegae</w>
▁B ang
tif ication</w>
ta i▁n</w>
pe▁ ri
os t
on to</w>
inst all
g rou▁ps</w>
elec tions</w>
c▁ r▁ea
b▁ u▁t</w>
I s</w>
▁i Phone</w>
▁h a▁s</w>
▁bur d
w▁ ould</w>
tu▁r n</w>
sh owi▁ng</w>
sch oo▁ls</w>
prais al</w>
ou▁ ght</w>
op▁ er
is ti▁cs</w>
improv eme▁nt</w>
igh te
hav i▁ng</w>
h ak</w>
gu k</w>
em ▁ed</w>
elec om</w>
ear ning</w>
der ful</w>
comp etition</w>
ch u▁l</w>
b ong</w>
a▁t t
I D</w>
▁rea ching</w>
▁mot or</w>
▁in auguration</w>
▁ed ge</w>
▁dec isions</w>
▁ar en</w>
▁N ak
▁M E
▁Arab ia</w>
with in</w>
our▁ se</w>
meas ure</w>
ma▁r k</w>
m ag
l ost</w>
high e▁st</w>
f a▁ct</w>
comp an▁y</w>
b its</w>
a▁l ways</w>
at▁ h
ann ers</w>
O ne</w>
C C
5 6</w>
▁tr an
▁sup porters</w>
▁n etizens</w>
▁in corpor
▁exc eeds</w>
▁T est</w>
▁Pl an</w>
th i▁nk</w>
str en▁g
son nel</w>
s k</w>
p y▁o</w>
p op▁
p eace</w>
o▁ ff▁ice</w>
om m▁
ic ▁t</w>
e▁v ent</w>
e▁conom ic</w>
e▁ k</w>
ea▁ sy</w>
di a</w>
ch em
b▁e▁ come</w>
am in</w>
Offic ▁e</w>
; d</w>
7 5</w>
5 7</w>
▁strugg le</w>
▁pro longed</w>
▁nerv ous</w>
▁h ub</w>
▁b oom</w>
▁ar bitr
▁any where</w>
▁P acific</w>
▁D oo</w>
▁Br itain</w>
▁2 9
un▁ der</w>
u a▁l</w>
t▁ic l▁e</w>
ta▁ ge</w>
t om▁
sur v
sh a▁re</w>
ri e▁d</w>
p etr
on li▁ne</w>
och ang</w>
m i▁s
k a</w>
increa se</w>
iev ed</w>
i a
h igh▁
des ign</w>
comm i▁t
com pens
M C</w>
Administr ati▁on</w>
▁schol ars</w>
▁r iding</w>
▁magaz ine</w>
▁ch ain</w>
▁F ive</w>
u▁ p
us e▁d</w>
t▁ ow
th▁ od</w>
se▁ veral</w>
mea▁ su▁res</w>
econ▁ omic</w>
ea c▁h</w>
e ffic
dro p</w>
d ow▁n</w>
communic ati▁on</w>
ch eck</w>
aw ing</w>
ar▁ ound</w>
ad o</w>
P op</w>
O ctober</w>
Indus t▁ry</w>
▁t aught</w>
▁p apers</w>
▁day time</w>
▁conn ecting</w>
▁att ach</w>
▁T or
▁P rem
▁Ass et</w>
▁4 3</w>
um p
th▁ a▁n</w>
qu es▁
pr o▁t
ph oto</w>
person n▁el</w>
op▁ in
m yeong</w>
m ine</w>
issu▁ es</w>
f▁ ore</w>
ch▁ an</w>
,0 00
& q▁u▁ot;</w>
▁tr a
▁re tr
▁pen ding</w>
▁met al</w>
▁l on
▁expres sing</w>
▁discharg ed</w>
▁ch emical</w>
▁b ank
▁Sec ond</w>
▁Han jin</w>
v ices</w>
ust me▁nt</w>
ti▁ ms</w>
sp ea
pr▁o duct</w>
play ▁er</w>
n e▁c
l▁ ess</w>
i▁ sion</w>
is▁h ed</w>
i king</w>
h ope</w>
ess ly</w>
ch ▁ul</w>
ch airper
Presi▁d ent</w>
B A</w>
A▁r ti▁cle</w>
A ugust</w>
4 1</w>
▁const ant</w>
▁acc eler
w oo▁k</w>
ut e▁s</w>
und ang</w>
tic ularly</w>
stat▁ us</w>
sc ene</w>
ot▁ h
n▁ umber</w>
med i▁
in stitu▁
govern men▁t</w>
ess e▁s</w>
dr am
c▁ annot</w>
con tro▁
commer ci
azak h
and a</w>
al▁ f</w>
G ove▁rn
▁telecomm unication</w>
▁serv er</w>
▁s ought</w>
▁hea ted</w>
▁decor ated</w>
▁cal m</w>
▁attrac tive</w>
▁Indones ian</w>
▁C o.</w>
r id
probl ems</w>
off i▁c
mat eria▁ls</w>
m ail</w>
if elong</w>
ie▁ ve</w>
fo▁ ll
ee▁ p</w>
ea c▁e</w>
con stitu
comp▁ anies</w>
ad ong</w>
Institu t▁e</w>
F or▁
▁t om
▁ob ject</w>
▁max im
▁m eets</w>
▁en coun
▁dis tribute</w>
▁decl ined</w>
▁cons ci
▁Res ources</w>
▁D et
oun g
k▁ n
k▁ ind</w>
fort unately</w>
comm▁ ittee</w>
b ery</w>
atten ded</w>
ail ing</w>
▁inter ven
▁inev itably</w>
▁disp atch</w>
▁bur ied</w>
▁Stud ies</w>
us▁ ing</w>
s am▁e</w>
prof it</w>
em ployees</w>
cl u▁d
b▁ um</w>
a▁c tive</w>
ab il▁
L ab▁or</w>
Con f
▁ship building</w>
▁res istance</w>
▁p ig
▁juven ile</w>
▁invest or</w>
▁injur ies</w>
▁exemp ted</w>
▁det ention</w>
▁Jin ping</w>
▁Ex hibition</w>
▁E un
stud e▁nt</w>
p▁ ur
o▁p ment</w>
o▁ s▁
ow▁ n
leg ▁al</w>
k l
i▁ ving</w>
esti ons</w>
d on▁
c▁ ri
ar riv
ap▁ er</w>
ad a</w>
▁tel ephone</w>
▁subsid ized</w>
▁p eac
▁im position</w>
▁f i▁rst</w>
w▁ ays</w>
t▁h y</w>
progr a▁ms</w>
pro bl▁em</w>
m i▁d
k eep</w>
ir o</w>
in▁ ation</w>
fail ▁ed</w>
crea t▁ed</w>
compl et▁ed</w>
ch▁ ange</w>
Am eric
201 2</w>
▁y o▁u</w>
▁t esting</w>
▁sl ump</w>
▁refug ee</w>
▁pre ferred</w>
▁n eve▁r</w>
▁experi encing</w>
▁confron tation</w>
▁Stand ards</w>
▁Egyp t</w>
▁ ement</w>
wh▁ et▁her</w>
w in▁
v ent
t el
so▁ cial</w>
sid er</w>
regar di▁ng</w>
pl a▁
l eep</w>
j oo</w>
ec tors</w>
cr▁ ea
con tract</w>
at us</w>
an▁ ding</w>
ans w
ab o▁r</w>
L ife</w>
▁se izure</w>
▁respon ses</w>
▁firef ighters</w>
▁Taek wondo</w>
▁Offic er</w>
▁E as
x y</w>
sum ▁
r at▁e</w>
r an▁ge</w>
prov i▁ncial</w>
pro jec▁t</w>
os a</w>
m▁on th</w>
lo▁ c
ir e▁ct</w>
g t;</w>
g iv▁en</w>
d ney</w>
d a
ch▁ eon</w>
c a▁n
aft▁ e▁r</w>
N▁ o.</w>
I C</w>
&a▁p▁os ;m</w>
▁sett le</w>
▁le g</w>
▁l ighting</w>
▁a p▁
▁Investig ation</w>
▁A wards</w>
pr▁o j▁ect</w>
presid e▁ntial</w>
mis sions</w>
l a▁ck</w>
jo▁ in</w>
iz z
int ell
hos ▁p
gi ene</w>
b▁ udget</w>
az y</w>
a i
In ter
H o</w>
C r
;▁ m</w>
▁str ict</w>
▁recru iting</w>
▁publ ication</w>
▁f er
▁clin ical</w>
▁ch air</w>
▁M emor
▁D MZ</w>
w elfare</w>
v▁ en
sy s▁tem</w>
pos ure</w>
par t▁
otten ham</w>
o th▁
l▁ ead</w>
h▁erein aft▁er</w>
gr a▁de</w>
gen e▁r
fe▁ ll</w>
elec tr
dis crimin
con d▁
commission ▁ed</w>
car ri▁ed</w>
am en</w>
P o▁l
G e▁n
▁techn iques</w>
▁supervis or</w>
▁s par
▁pre d
▁p ip
▁ow nership</w>
▁m yst
▁immigr ation</w>
▁affili ates</w>
▁Gu ard</w>
▁Con sumer</w>
y▁ er</w>
y ang
tin ue</w>
tic es</w>
su▁l a</w>
on ze</w>
ma i▁n
m em
it t▁ed</w>
ir▁ st</w>
fam o▁us</w>
der▁ ly</w>
con fi▁r
b▁ etter</w>
b oy
ack et</w>
M oo▁n</w>
J o▁ng</w>
H ak</w>
Elec tron
Comm itte▁e</w>
&ap▁os; t</w>
▁ra ises</w>
▁m in</w>
▁attor ney</w>
▁S c
▁Par ticularly</w>
▁C redit</w>
▁5 00,000</w>
▁&apo▁s ;t</w>
s ex</w>
ot t</w>
n eg▁
mov ie</w>
ilat eral</w>
fl ow</w>
f oo▁d</w>
f ers</w>
d ai▁ly</w>
corp▁or ate</w>
cl e▁ar</w>
ann o▁un
S▁ ec
S afe▁ty</w>
8 ▁th</w>
6 3</w>
▁y ea▁rs</w>
▁networ ks</w>
▁dom in
▁discus sing</w>
▁compl ained</w>
▁G ov.</w>
▁Ch e
un gh
s en▁
pos▁ al</w>
m ain▁
li ance</w>
increa sed</w>
he▁ at</w>
h a▁nd</w>
cau g▁ht</w>
cas ting</w>
ar ely</w>
L og
C en▁ter</w>
▁w e
▁pres erve</w>
▁ph armaceutical</w>
▁laun ching</w>
▁fri endship</w>
▁fres h
▁decrea sing</w>
▁d ancing</w>
▁Pre vention</w>
▁Manag er</w>
▁D a</w>
u▁n g
um▁ p</w>
trad it▁ional</w>
sched ul▁ed</w>
s n
rup t</w>
prin ci
it a▁l</w>
ic▁ ial</w>
here i▁n
h a▁r
h appy</w>
cour se</w>
acc ou▁n
A g▁
8 8</w>
▁sup er</w>
▁ob jects</w>
▁n ights</w>
▁c art
▁bid ding</w>
▁S ung
▁N A
ye on
w▁it h▁in</w>
t▁ ro
tion ary</w>
sp ir
rel at▁
or iz
m ye▁on</w>
i an▁ce</w>
e▁n ▁t</w>
eff ect</w>
ec▁ te▁d</w>
an tic</w>
Prov ide▁d</w>
D S</w>
5 1</w>
▁spons ored</w>
▁sear ching</w>
▁rec all</w>
▁l o▁
▁k m</w>
▁integr ation</w>
▁finis hing</w>
▁exc ited</w>
▁dep end
▁appro pri
▁am azing</w>
▁absol ute</w>
▁Des ign</w>
▁B each</w>
▁&▁ a
vehic l▁es</w>
sh in</w>
resid▁ ents</w>
pr ac▁
pon se</w>
p u▁sh</w>
m ilitary</w>
join▁ ed</w>
em atic</w>
du▁ ced</w>
div isi▁on</w>
con d
ch e▁rs</w>
a▁ ds</w>
Pol i▁ce</w>
O T
En▁g lish</w>
Am e▁r
▁w eb</w>
▁t ab
▁sw ing</w>
▁r o▁
▁produc ers</w>
▁increa singly</w>
▁R ail
▁L ibrary</w>
▁KOS DAQ</w>
ri a</w>
l▁ arge</w>
it er</w>
h▁ igh</w>
d e▁r
angu ages</w>
amp s</w>
al tern
Intern▁ et</w>
▁wors ening</w>
▁trad ition</w>
▁targ eting</w>
▁step ped</w>
▁shou lder</w>
▁see kers</w>
▁mist akes</w>
▁manip ulation</w>
▁inv ent
▁fair ness</w>
▁c ast</w>
▁Se o▁ul</w>
▁M il
▁Fr amework</w>
ye e▁s</w>
v▁ er</w>
vi e▁w</w>
veh ic▁le</w>
sh r
ser▁ vice</w>
respon▁ se</w>
n ▁s</w>
ic ted</w>
fee▁ l</w>
f ee</w>
f a
even th</w>
dev e▁lop
at▁ eg
Se ong</w>
G eum
F ebru
Da egu</w>
D o▁ng</w>
A E</w>
▁w e▁ll</w>
▁t e▁r
▁sh ift</w>
▁pic ked</w>
▁pat rol</w>
▁har der</w>
▁ch e▁ck</w>
▁ab or
▁Trans portation</w>
vi ation</w>
r▁ ights</w>
ou t▁h</w>
m en
k ets</w>
je▁c ts</w>
i▁ ew</w>
i enc▁e</w>
fl ix</w>
ee▁ ch</w>
ec tion
c▁ an▁
ar ts</w>
5▁ 0</w>
▁threa tened</w>
▁sp ots</w>
▁fl uctu
▁T ri
▁S BS</w>
▁Int egr
▁&▁ a▁mp;</w>
s urr
retur n▁ed</w>
osp el</w>
f ound</w>
er▁ at▁ion</w>
enc i▁es</w>
air▁ man</w>
T alk</w>
E C</w>
▁trav el
▁foot age</w>
▁exc ep
▁deteri or
▁boo ths</w>
▁T w
▁Kak a
ter ies</w>
tal ks</w>
os h
o ffer
lear ni▁ng</w>
j un</w>
i▁ ence</w>
in ni▁ng</w>
i u▁m</w>
hear t</w>
fam ilies</w>
end ations</w>
du ▁e</w>
con t▁r
c ateg
bo▁r n</w>
ab ol
P CO</w>
I ▁n</w>
. &apos;</w>
▁sign ature</w>
▁pun ished</w>
▁proc esses</w>
▁out look</w>
▁n am</w>
▁l ending</w>
▁l abor
▁instruc tor</w>
▁in land</w>
▁consult ative</w>
▁con clude</w>
▁c au
▁bir ds</w>
▁O s
▁L ord</w>
▁K wak</w>
▁D oc
▁4 1</w>
w or▁th</w>
v▁ er
t ou
perfor▁m a▁nce</w>
ok en</w>
m ate</w>
etropo▁l itan</w>
eas ures</w>
d oll
c▁ as
bus in▁
aw ar
ac ing</w>
10 ▁th</w>
▁show case</w>
▁r igh▁t</w>
▁out break</w>
▁l od
▁in sur
▁g am
▁d awn</w>
▁cr u
▁camp ing</w>
▁bull etin</w>
▁ag ents</w>
▁P ay</w>
▁O ver</w>
▁M un
▁J ourn
▁J ames</w>
▁H ollywood</w>
▁Bi o
z o</w>
thr▁ oug▁h</w>
sh ed</w>
p ower
ox ide</w>
o T</w>
id ation</w>
empl o▁
em an</w>
ell ed</w>
develo▁p ment</w>
constru▁c tion</w>
b en▁
at▁ a</w>
ar▁t m▁ent</w>
appro pri
P▁ ublic</w>
Pro▁v ince</w>
2 3
▁tr uly</w>
▁th a▁n</w>
▁symb ol</w>
▁succ ession</w>
▁arriv al</w>
▁T our</w>
ye▁ ong</w>
w at▁
t otal</w>
s▁ h▁
sy n
r ain
o▁u th</w>
hy up</w>
g ye</w>
etw ork</w>
el ▁s</w>
dep art▁
dam age</w>
c entr▁al</w>
P ublic</w>
P re▁sid
M S</w>
▁th r
▁t ens</w>
▁str eam</w>
▁star tup</w>
▁seas ons</w>
▁ret ail</w>
▁minis ters</w>
▁mas k</w>
▁manufactur er</w>
▁jum ped</w>
▁ar ms</w>
▁Wh ether</w>
▁Cap ital</w>
▁Austral ian</w>
▁2 50</w>
t▁h er▁e</w>
rec ently</w>
re vi▁ew</w>
n eeded</w>
m un
m iddle</w>
l▁ ack</w>
lea der</w>
k ind</w>
it ude</w>
h▁ y
h uge</w>
f ol▁
e▁c tive</w>
exper ience</w>
est▁ ival</w>
es tic
con f▁ir
b▁ eg
U V</w>
Sm a▁ll</w>
In stitute</w>
Elec tr▁
▁t ells</w>
▁rel atives</w>
▁princi ples</w>
▁p ack</w>
▁mor t
▁ill ness</w>
▁fr ame</w>
▁aspec ts</w>
▁Tr aining</w>
▁Tai w
▁T ower</w>
▁Ex pec
un s</w>
sum mer</w>
so▁ ci
shar ehol
res u▁lt</w>
p▁ ower</w>
pr ic▁es</w>
og n▁
nec e▁ss
mak ers</w>
langu a▁ge</w>
it cher</w>
establis ▁h
d▁ ro
corpor a▁te</w>
cas ▁e</w>
c iti▁
an ting</w>
al▁ y
H A
Eng ine
Ch eo▁ng</w>
A ir</w>
5 9</w>
▁y e▁ars</w>
▁vis a</w>
▁tal ents</w>
▁spec ulation</w>
▁sc r
▁s id
▁heal ing</w>
▁fro zen</w>
▁flav or</w>
▁driv en</w>
▁ch art</w>
▁a▁ fter</w>
▁Sh ip
▁S an</w>
▁R eal
▁Em bassy</w>
y angju</w>
urr ing</w>
s▁ h</w>
reg ul▁
pro perly</w>
ph y▁
m ach
i▁ c▁h</w>
iv e▁d</w>
h al
g a</w>
distr ib▁
b al▁l</w>
adv ance</w>
E co▁n
▁writ ers</w>
▁sh eet</w>
▁p ine</w>
▁log ic</w>
▁i m▁
▁a ired</w>
▁R ef
▁P anmunj
▁Chun cheon</w>
▁Bur ning</w>
w ay▁s</w>
tain me▁nt</w>
s o▁n
ri ble</w>
oper a▁te</w>
l iving</w>
ic▁ at▁ion</w>
gr▁ ow
fri ends</w>
e▁c t▁ion</w>
ev ision</w>
enti onal</w>
d▁ ef
d augh
c▁ hed</w>
conc er▁
chang ▁ed</w>
b ri▁
al ition</w>
accus ▁ed</w>
Serv ice</w>
Nov emb▁er</w>
▁won derful</w>
▁sem i</w>
▁res ulted</w>
▁pre ference</w>
▁p ill
▁n arrow
▁initi ally</w>
▁fi re
▁ex ists</w>
▁dis ▁
▁di esel</w>
▁communic ations</w>
▁Ch an</w>
v▁ i
ul s
st ern</w>
situ▁ at▁ion</w>
sch ol
re▁ v
on▁ gs</w>
on als</w>
f a▁ll</w>
er ge</w>
d .</w>
ca▁l led</w>
b▁ ased</w>
b ac▁k</w>
a▁c c
at▁ ure</w>
S he</w>
S D</w>
Rus sia</w>
& amp▁;</w>
▁s ells</w>
▁represent ing</w>
▁r oles</w>
▁prof itability</w>
▁produc tivity</w>
▁prin ting</w>
▁pra ised</w>
▁l ev
▁k id
▁autom atic</w>
▁Cong ress</w>
▁4 4</w>
refe▁r r▁ed</w>
ph o▁ne</w>
oph is
mit t▁ed</w>
ky u▁ng</w>
h o▁s
g ap</w>
fin ancial</w>
en tic
cont ent</w>
aul o</w>
▁under way</w>
▁tax ation</w>
▁supervis e</w>
▁resc ued</w>
▁hea ded</w>
▁gu ardian</w>
▁b acter
▁W ol
▁W ang</w>
▁Gim hae</w>
▁0 .
uti n</w>
r▁ o</w>
rea di▁ng</w>
pri▁ vate</w>
poin▁ ts</w>
op p
n▁ ov
m al
k es</w>
jo▁ o</w>
inc re▁as
in i▁ng</w>
g ung</w>
g ames</w>
f▁ir s▁t</w>
fin ite</w>
exp e▁n
es t▁s</w>
dro me</w>
c▁l os
chil d▁ren</w>
b i</w>
K▁or e▁an</w>
En gli▁sh</w>
▁sp eaker</w>
▁prin t</w>
▁n ▁
▁l anguages</w>
▁exam s</w>
▁e ▁
▁dem ol
▁ch arm</w>
▁bath room</w>
▁advant ages</w>
▁Tr ad
▁F u
▁Ex pressway</w>
▁Afr ican</w>
stu▁ dy</w>
rank ▁ed</w>
off▁ ic
m▁ark ▁et</w>
l▁ iving</w>
l a</w>
in ent</w>
id ers</w>
ear cher</w>
d▁ ev
d ang
beco▁m ▁e</w>
administr▁ ative</w>
20 20</w>
▁super ior</w>
▁mo tiv
▁har mon
▁grat eful</w>
▁categ ories</w>
▁Chung buk</w>
w▁h a</w>
res tric
re d▁uc
p ea▁ce</w>
on▁ t</w>
og r▁
ic ked</w>
emplo▁y ment</w>
def en▁se</w>
a▁m p</w>
F und</w>
D irector</w>
D A</w>
1 .▁
▁un familiar</w>
▁ther apy</w>
▁sc at
▁restric tion</w>
▁r ot
▁p up
▁mus cles</w>
▁Taiw anese</w>
▁Confuc ian</w>
▁ on</w>
w arm</w>
tour i▁sm</w>
ti f▁
th rea
t led</w>
s▁ s</w>
sm artph
p ub▁lic</w>
o▁ int</w>
or al</w>
olo▁g ical</w>
int▁ern al</w>
d▁ ec▁
dus try</w>
In c▁heon</w>
C O
▁rea ction</w>
▁prot ecting</w>
▁part ners</w>
▁o ri
▁h al
▁def ined</w>
▁cos t
▁cons isting</w>
▁chec ks</w>
▁M el
▁ tio▁n</w>
w a▁n</w>
us ▁es</w>
sum mi▁t</w>
sta▁ ff</w>
sh▁ ot</w>
sa▁ le</w>
ris k</w>
n orthe▁rn</w>
m▁ anag
in▁ ter
h arm
f▁ ourth</w>
fu▁r ther</w>
f our▁th</w>
ex▁ pec
comm un▁
bel iev
a▁c tion</w>
ar▁ ly</w>
ar ms</w>
L e▁
E U</w>
▁shou ldn</w>
▁is▁ sue</w>
▁conven tion</w>
▁compon ents</w>
▁chec k
▁bel ongs</w>
▁att acks</w>
▁Se ungri</w>
▁H am
▁Con test</w>
▁B ong</w>
▁10 0th</w>
w th</w>
un c
uc ky</w>
t▁ in▁g</w>
se i</w>
pro▁ du▁c
priv ileg
po▁ or</w>
pop ul
m as
i▁ ti▁es</w>
investig▁ at▁ion</w>
ign ity</w>
fu▁ nd</w>
em p▁
co a▁ch</w>
c ars</w>
c alled</w>
b▁ eh
app▁ rov
an ity</w>
Oct ob▁er</w>
Ag en▁cy</w>
▁w oo</w>
▁struc tural</w>
▁sp ot
▁sm a▁ll</w>
▁res ort</w>
▁r oot</w>
▁pr▁ ice</w>
▁pl edge</w>
▁in fr
▁encour aging</w>
▁emb arr
▁bl ow</w>
▁b ad
▁Kinderg arten</w>
▁Inter ior</w>
▁B udget</w>
tur ▁al</w>
tr▁ ib
oppos▁ ition</w>
in▁ st▁
ing re
in c▁l
il▁ ar</w>
ill io▁n</w>
hou s▁
ex▁ per
exec u▁
en c▁es</w>
emp▁l oy
el i▁ng</w>
dr a▁ma</w>
dep artment</w>
dem and</w>
del i▁
c▁ enter</w>
b ok
ap o▁s▁
al ties</w>
ab ou▁t</w>
M oo</w>
H was
▁ter rit
▁s▁ ince</w>
▁scienti fic</w>
▁pursu ed</w>
▁poll ut
▁person ally</w>
▁m alls</w>
▁N atur
▁M os
▁B io</w>
v▁ ir
t un
s▁ ee▁
st ar</w>
st and</w>
s ale</w>
requ e▁st</w>
receiv i▁ng</w>
p us
oc▁ ks</w>
mi▁n imu▁m</w>
hea▁ ds</w>
fi x
bu▁ k</w>
U▁ S</w>
O E
M a▁
Dis trict</w>
▁toil et</w>
▁surpr ise</w>
▁sec onds</w>
▁sal t</w>
▁inv ite</w>
▁fl ights</w>
▁O pen</w>
▁Cheong do</w>
y▁ eong</w>
t y
str eng▁
s pr
rev ealed</w>
rel ations</w>
pr▁ od
produc ▁ed</w>
probl e▁ms</w>
pl a▁n</w>
i▁m p▁
hy th
h eat</w>
exhib iti▁on</w>
e uk
d ated</w>
cr ime</w>
a▁n ds</w>
au g▁h
S ol
M ot
B as
▁wh oles
▁week ly</w>
▁repres ent</w>
▁in noc
▁h itting</w>
▁encour aged</w>
▁con stitutional</w>
▁compl eting</w>
▁ch ocolate</w>
▁abol ition</w>
▁N ak</w>
▁K imchi</w>
y▁ et</w>
throu▁ g▁h</w>
s▁ec on▁d</w>
pers▁ on
p ical</w>
on▁ ment</w>
l i▁n
i▁ li
ir eless</w>
indus tr▁y</w>
i an
g am▁e</w>
f▁ ar</w>
en j▁oy</w>
conven ien▁ce</w>
compl eted</w>
at al</w>
W ar</w>
S CO</w>
J ang
▁wat ers</w>
▁str aw
▁r ank</w>
▁fl at</w>
▁f i▁
▁exc iting</w>
▁ess ay</w>
▁effec tiveness</w>
▁des irable</w>
▁ag es</w>
▁Ind eed</w>
▁Fin ally</w>
un til</w>
str ess▁ed</w>
loc ated</w>
iti g
inter est</w>
h ea▁r
e▁ o</w>
er e▁d</w>
coun sel
condu▁c t</w>
at or
N ovember</w>
B o
0 5</w>
▁open s</w>
▁l ap
▁j unior</w>
▁influ enced</w>
▁hear ts</w>
▁def eat</w>
▁be t▁ween</w>
▁Per haps</w>
v ic▁
ud g▁et</w>
sup po▁r
p▁ ric
p▁ re▁
oc▁ k</w>
k ly</w>
ivers a▁ry</w>
ind u▁stry</w>
inc▁ rea▁se</w>
hy ▁e</w>
e▁m ber</w>
ev i▁d
clu▁ ding</w>
ch e▁d</w>
c enter▁ed</w>
aw a▁y</w>
as t▁ic</w>
ar ▁s</w>
adem▁ ic</w>
E ur▁
Dis tric▁t</w>
6 ▁th</w>
5 4</w>
&ap▁os;▁ ve</w>
&apo▁s ;t</w>
▁vis ual</w>
▁t ied</w>
▁s um</w>
▁r itual</w>
▁p itcher</w>
▁out lets</w>
▁inform atization</w>
▁in appropriate</w>
▁ha bit
▁depos its</w>
▁d il
▁clos ure</w>
▁b orrow</w>
▁Con ference</w>
wh▁ ile</w>
t less</w>
reg istr
ky un▁g</w>
int▁er est</w>
hw amun</w>
equ ▁
ep▁ t</w>
e ve</w>
c er</w>
St ud
M ayor</w>
Dem ocr▁atic</w>
Aug u▁st</w>
▁surv ive</w>
▁prot ected</w>
▁c alligrap
▁Trea sury</w>
▁Med ia</w>
▁ME RS</w>
▁K n
▁J a</w>
▁7 5</w>
▁4 6</w>
s▁ ec▁
sec ti▁on</w>
s ize</w>
p ic▁
op p▁os
oo th
it ory</w>
inves▁ tment</w>
il▁ d</w>
g rou▁p</w>
fi▁r s▁t</w>
d ev▁el
cili ation</w>
amm ar</w>
In nov
20▁1 6</w>
&a▁po▁s ;▁s</w>
▁sil ver</w>
▁k ind
▁conver gence</w>
▁appl iances</w>
▁V al
▁Argent ina</w>
w ar▁
v ily</w>
su ally</w>
st ay</w>
st an▁d
sent enc▁ed</w>
r▁ ow</w>
pr▁o ject</w>
pr ic▁ed</w>
o▁r ry</w>
o▁ ms</w>
ou ble</w>
o ther
mo▁n th</w>
me▁ as
h eon</w>
dis abl▁ed</w>
co▁m m▁
cos ts</w>
ch a▁n
a▁ ld</w>
Th ere</w>
Rep resent
O lymp
K R▁W</w>
C E▁
B▁ usan</w>
8 5</w>
▁taxpay er</w>
▁sup plement</w>
▁gradu ated</w>
▁fulf ill</w>
▁air line</w>
▁M a
▁Bas ic</w>
y▁ ear▁s</w>
y an▁g</w>
t▁im ▁e</w>
res▁ earch</w>
pre fer
l▁ and</w>
k y▁u</w>
j eo▁ng</w>
i▁n ter
insu▁r ance</w>
g il</w>
foll ow▁ed</w>
f ul
eb ack</w>
acc ep
ac k▁
V ill
Japa▁n ese</w>
Administr ati▁ve</w>
▁po is
▁miss ile</w>
▁mach inery</w>
▁in sp
▁hea twave</w>
▁dr one</w>
▁direc tions</w>
▁coun sel</w>
▁cons ervation</w>
▁clou ds</w>
▁ap par
▁S sang
▁B al
▁A rea</w>
t elecomm
rec o▁
re ported</w>
pre▁ ss
ou l
n or▁
m u</w>
im ▁e</w>
ib l▁e</w>
h▁ ot</w>
d u</w>
c▁h ange</w>
conditi o▁ns</w>
bus i▁n
bur d▁en</w>
b i▁ll</w>
ac ent</w>
D▁ ec
Dis t▁rict</w>
Dec emb▁er</w>
A▁r t</w>
A sian</w>
▁w ash</w>
▁un ified</w>
▁symb ol
▁promp tly</w>
▁phr ase</w>
▁f em
▁dis trib
▁b ound
▁M yeong
w oman</w>
tr a▁ck</w>
sec retary</w>
p▁ ing</w>
pri▁ se</w>
ol▁ ved</w>
m▁ ust</w>
g ress</w>
ever y▁
equ ality</w>
en ly</w>
emb le</w>
distribu ti▁on</w>
diff▁er en▁t</w>
d emocr
conf e▁r
b▁ usiness</w>
an▁ ted</w>
Lib▁ erty</w>
For ei▁gn</w>
Ch r
▁w ealth</w>
▁system atically</w>
▁special izing</w>
▁retur ns</w>
▁renew ed</w>
▁l ie</w>
▁dis tur
▁Pro perty</w>
▁200 4</w>
u▁ ry</w>
t▁er m</w>
ti▁ c</w>
spec if▁ic</w>
sem icon
own e▁rs</w>
op ment</w>
ol ved</w>
ign s</w>
if i▁c
ic ian</w>
g row</w>
fort ably</w>
f inal</w>
eti es</w>
educ a▁tion</w>
d▁ irec
di ed</w>
cl▁ ud
Y ou</w>
O c
Econ o▁my</w>
4 00</w>
18 ▁th</w>
1 .
▁wit ness</w>
▁p ep
▁lif ted</w>
▁expres sions</w>
▁experim ent</w>
▁P rivate</w>
▁Hu h</w>
▁D omestic</w>
▁Bu ilding</w>
▁3 6
▁200 2</w>
y▁ st
tr aining</w>
th ink</w>
s▁ enior</w>
st ar▁
spe▁ ci
plac ▁e</w>
manag ▁er</w>
lim ited</w>
iti s</w>
f▁ fer
d i▁c
con trib
a▁t eg
a▁m es</w>
at mos
arb ucks</w>
ai▁ led</w>
Sp▁ec ial</w>
G rou▁p</w>
Dec r▁ee</w>
20 ▁th</w>
▁viol ent</w>
▁str et
▁sn acks</w>
▁rec overed</w>
▁pour ed</w>
▁esc al
▁c a▁
▁bel t</w>
▁Sun cheon</w>
▁Oper ation</w>
▁Inst agram</w>
▁H ae
▁Comm unications</w>
w as▁te</w>
ur▁ r
un iver
th o▁
special iz▁ed</w>
sm oki▁ng</w>
pro c▁
plac ▁es</w>
pl eas
omer ates</w>
j ourn
in i</w>
ic ro</w>
h▁ ea
hou s▁es</w>
fir m</w>
c ente▁r</w>
at ar</w>
ag a▁inst</w>
ad vis
a el</w>
O r▁
J ud
9 ▁th</w>
▁wor ship</w>
▁uplo aded</w>
▁ter ror
▁t all</w>
▁sew age</w>
▁op tions</w>
▁i sol
▁democr atic</w>
▁contro lled</w>
▁bott le</w>
▁appl ies</w>
▁Yeong deungpo</w>
▁T ottenham</w>
▁St ock</w>
▁Republ ican</w>
▁2 .5</w>
▁& amp;</w>
vi ew▁
techn▁ ology</w>
r▁ul ing</w>
pop ular</w>
or ities</w>
n e▁rs</w>
i o▁r</w>
eong buk</w>
el ig
each ment</w>
coo p▁er
arant ine</w>
Ph il
H an▁
Comm it▁tee</w>
▁pro p
▁o uter</w>
▁class room</w>
▁ath l
▁Y on
▁Ear th</w>
v ation</w>
ter▁ m</w>
rea d▁y</w>
n▁ ational</w>
m ix
im ent</w>
g▁ l
g a▁n
e▁ sti
d▁ es▁
de▁ l
Sec reta▁ry</w>
I l</w>
A R
▁st amp</w>
▁pr▁ o
▁h urry</w>
▁de ployed</w>
▁cover age</w>
▁ass essed</w>
y outh</w>
u e▁s</w>
su ff▁
s essi▁on</w>
r▁ea s▁on</w>
rep▁ or▁ted</w>
p port</w>
ot▁ ion</w>
n ur
leg isl
invest ment</w>
infl▁ u
empl ary</w>
b i▁g
ati tude</w>
ac he</w>
R u▁s
J un</w>
En tr
▁vir us</w>
▁veter ans</w>
▁pi ano</w>
▁lec tur
▁k i</w>
▁inquir y</w>
▁h a▁ve</w>
▁contr ast</w>
▁comm ander</w>
▁comm and</w>
▁al liance</w>
▁M O
▁Ital ian</w>
▁Expec tations</w>
▁Ch i▁na</w>
sti ce</w>
se▁ t</w>
p▁ ri▁
prosec ution</w>
per or</w>
out si▁de</w>
n ity</w>
n e▁r</w>
in▁ clud
im a</w>
h▁el p</w>
comp▁ an▁ies</w>
cer emony</w>
a▁l ue</w>
ay o▁r</w>
ann u▁al</w>
abil iti▁es</w>
M ex
K won</w>
Ar t▁
▁th reat</w>
▁restor ed</w>
▁n or
▁mathem atics</w>
▁instr uments</w>
▁em issions</w>
▁d ormit
▁concentr ate</w>
▁bl oss
▁N ations</w>
▁Ben to</w>
w ea▁
tr end</w>
sy▁st e▁m</w>
st one</w>
sh owed</w>
sc en
re in
r at▁
pl a▁y</w>
o▁ .</w>
ho▁ od</w>
grow i▁ng</w>
et w▁een</w>
c el</w>
b▁ el
b▁ ak</w>
be▁c a▁us▁e</w>
bas is</w>
b u▁r
ad i▁um</w>
P G</w>
O l
L ove</w>
K ong</w>
▁w ishes</w>
▁t onight</w>
▁sav ing</w>
▁observ ation</w>
▁func tional</w>
▁fin ancing</w>
▁explos ion</w>
▁architec ture</w>
▁P angyo</w>
▁K B</w>
▁Ac tually</w>
ven ue</w>
ur ban</w>
sk in</w>
r▁ eg▁
prev e▁n
or ds</w>
ook ie</w>
my u▁ng</w>
m ur
j ▁un</w>
gre▁ en</w>
div ision</w>
cl▁ ub</w>
af▁ ety</w>
Se▁ ou▁l</w>
P eople</w>
▁str ea
▁real istic</w>
▁p ure</w>
▁j u</w>
▁a uction</w>
▁Y eong</w>
up yeong</w>
ta▁ ek</w>
sec t▁or</w>
ph y</w>
o▁ cr
n is</w>
min ut▁es</w>
i▁ red</w>
i▁ e</w>
if ted</w>
id eo</w>
ic on</w>
facil itie▁s</w>
est yle</w>
discu▁ ss</w>
dis ast▁er</w>
brea k
br a▁nd</w>
am ination</w>
alifor nia</w>
T ec
S en
D▁ ay</w>
▁wor n</w>
▁wal ked</w>
▁separ ation</w>
▁judg ing</w>
▁hy un</w>
▁fl ood</w>
▁fail ing</w>
▁every where</w>
▁en able</w>
▁ch ampionship</w>
▁at tributed</w>
▁S ar
▁Mok po</w>
▁H ope</w>
▁G ame</w>
▁A round</w>
s▁ id
sup porti▁ng</w>
sh▁ op</w>
rec o▁rd</w>
pr▁o f
pen s▁
on line</w>
natur ▁al</w>
h a▁ll</w>
exam inati▁on</w>
ea uty</w>
dire▁c t▁or</w>
burs ement</w>
ar io</w>
ann a</w>
S a
P C</w>
Jos e▁on</w>
Jap anese</w>
H▁ an
D▁ a
▁t ool</w>
▁s u</w>
▁rel uc
▁pow der</w>
▁h obby</w>
▁for ming</w>
▁f a▁
▁cl ar
▁F ootball</w>
▁Coun cilor</w>
z er
yo▁ nd</w>
work er▁s</w>
te▁ er</w>
so ft</w>
sing▁ le</w>
si t▁es</w>
sh ot</w>
re vi▁
pos sibili▁ty</w>
o▁ per
oper▁ ating</w>
me▁ etin▁g</w>
ma▁ king</w>
l▁ ong</w>
l ow
j on▁g</w>
gre ement</w>
f▁ ood</w>
fe▁ es</w>
fac tory</w>
ex tr
es h</w>
de▁ al</w>
denuclear izati▁on</w>
co al</w>
chi▁l dren</w>
ati on▁
and o</w>
P O</w>
,▁ 000</w>
▁wh▁ en</w>
▁str ic
▁re plied</w>
▁objec tive</w>
▁green house</w>
▁fl ying</w>
▁fir ed</w>
▁commerci alization</w>
▁U.S.- North</w>
▁U U</w>
▁T ong
▁St ar</w>
▁O ut
▁For tress</w>
▁2 2
w ro▁
un▁ it</w>
un iversi▁ty</w>
s us▁
rea l▁
m▁ ove</w>
herein a▁fter</w>
g ar
e▁l t</w>
e▁c ts</w>
ex ist</w>
den ed</w>
comm erc
ati▁ c</w>
Prov▁ inc▁e</w>
A gency</w>
9 8</w>
▁t ox
▁t ower</w>
▁recycl ing</w>
▁public ity</w>
▁philos ophy</w>
▁meas urement</w>
▁high way</w>
▁foun der</w>
▁fi x</w>
▁design er</w>
▁des truction</w>
▁challeng es</w>
▁aud itor</w>
▁Pl aza</w>
▁F uture</w>
▁C ab
y gen</w>
tro versy</w>
tax i</w>
s exual</w>
r u▁n</w>
mem▁ bers</w>
e▁ au</w>
ex p▁er
ex hib▁
ell ence</w>
e ur</w>
contin ued</w>
c ore</w>
at▁ is</w>
H u
▁th row</w>
▁simultan eously</w>
▁sec tions</w>
▁pr ayer</w>
▁id e
▁comb ines</w>
▁c ope</w>
▁b ul
▁additi onally</w>
▁Th us</w>
▁F ed</w>
u ating</w>
tur n▁ed</w>
sub scri
streng th▁en</w>
si▁ d
s ymp
p▁l ay</w>
m il▁lion</w>
i▁t ary</w>
h▁ ome</w>
f elt</w>
ew o▁rk</w>
establis hed</w>
erm al</w>
eo ju</w>
de▁ s
cor rec
c ivil</w>
c e▁nt</w>
b ill</w>
K w▁on</w>
J u</w>
Comm i▁t
Bus a▁n</w>
1 00
▁y ear▁s</w>
▁uni forms</w>
▁sn ow
▁s ing</w>
▁descri bed</w>
▁del inqu
▁b att
▁ap ology</w>
▁Gun san</w>
un ive▁r
t▁ aking</w>
tak en</w>
se o▁ng</w>
on s▁
mov ▁ed</w>
l▁ ea▁
f an</w>
ec os
e iling</w>
d▁uc t</w>
a▁ ud
as ▁h
W e▁l
Unive▁r sity</w>
G e
8 4</w>
▁thea ters</w>
▁sh ower</w>
▁relation ships</w>
▁r ank
▁prec ed
▁mus h
▁l yrics</w>
▁hot els</w>
▁disapp ear</w>
▁attemp ts</w>
▁U sually</w>
▁T ong</w>
▁Pur suant</w>
▁Po cheon</w>
▁Offic ial</w>
▁Canad ian</w>
▁B ong
wit h▁
ul▁ y</w>
t an</w>
ra▁ in</w>
o▁ k
ok cho</w>
l▁ o
i▁s t▁er</w>
i▁ ev
impo▁r t▁ant</w>
g age</w>
cont e▁nt</w>
brief i▁ng</w>
ab road</w>
M E</w>
Janu a▁ry</w>
I CT</w>
D s</w>
C en▁
▁ul tra</w>
▁sear ched</w>
▁qual ifications</w>
▁per ▁
▁journ alists</w>
▁draw s</w>
▁do ors</w>
▁che ese</w>
▁cap tured</w>
▁bloc king</w>
▁aut onomy</w>
▁P utin</w>
▁Elec tric</w>
▁Dong jak</w>
ti ll</w>
sur es</w>
sub m▁
str▁ y</w>
sid ▁
p▁er▁ son</w>
p eti
o▁n g▁
ou ses</w>
incr▁ eased</w>
in e▁ss</w>
imb ap</w>
hou ses</w>
h is▁
h all</w>
cos ▁ts</w>
cl ean
c as▁
ativ e▁ly</w>
N▁ am</w>
K ing</w>
F am
Coun ci▁l</w>
0 8</w>
▁recru ited</w>
▁rea ppoin
▁p r▁es
▁mass age</w>
▁ec ological</w>
▁Techn o</w>
▁St atistics</w>
▁St arbucks</w>
▁Mex ican</w>
▁G ong
▁C E
▁All ow
v ulner
t aking</w>
st▁ ep</w>
ogr am</w>
nu▁m b▁er</w>
ma▁ k▁e</w>
it▁ ted</w>
issi o▁n</w>
hom ▁e</w>
hel▁ p</w>
facil i▁ties</w>
d eep</w>
be t▁wee▁n</w>
ati n</w>
ak er</w>
acc or▁
C er
4 t▁h</w>
&▁qu ▁o▁t;</w>
▁wh er▁e</w>
▁w ood</w>
▁th rew</w>
▁organiz ing</w>
▁f ly</w>
▁correc tive</w>
▁c ats</w>
▁b e▁g
▁N ob
sa▁ fe</w>
r▁eal l▁y</w>
pr▁ event</w>
pres ent</w>
pe▁r c▁ent</w>
p a▁y</w>
o▁t al</w>
or▁ der</w>
or g▁an
mut at▁is</w>
m eal</w>
l oo▁k</w>
involv ▁ed</w>
es ti▁ng</w>
ec ti▁ng</w>
co▁ l
am▁ a</w>
ab ies</w>
W o▁r
S u</w>
P A</w>
H os
E a▁st</w>
▁th r▁ough</w>
▁ter minal</w>
▁sincer ely</w>
▁repres ents</w>
▁rep utation</w>
▁ref unded</w>
▁p etro
▁new sletter</w>
▁mus icians</w>
▁f ant
▁dismis s</w>
▁des ired</w>
▁defin itely</w>
▁cur iosity</w>
▁crow d</w>
▁comp eting</w>
▁child hood</w>
▁Gwang hwamun</w>
u▁r al</w>
si▁ m
sec u▁re</w>
pur su▁
prof ess▁
produ▁c tion</w>
opin io▁ns</w>
n▁ ext</w>
ho▁ using</w>
ec tly</w>
di▁ rec
di plom
arres t▁ed</w>
al▁ led</w>
af ts</w>
R▁ oh</w>
Ordin▁ an▁ce</w>
L an▁d</w>
L abor</w>
▁wid th</w>
▁th e▁r▁e</w>
▁mon opol
▁inc idents</w>
▁facilit ate</w>
▁e at
▁dep ression</w>
▁confir ming</w>
▁class ical</w>
▁al g
▁Sou thern</w>
▁G olden</w>
▁G all
▁8 00</w>
▁1 ,0
ult▁ ure</w>
te en
sen ior</w>
ra ised</w>
o▁ il</w>
in y</w>
for▁ ce</w>
educ ation▁al</w>
dis trict</w>
direc ▁
c▁ ould</w>
competi tiv
ce▁n ter</w>
c over
c au▁se</w>
azakh stan</w>
ar i▁es</w>
2▁ 00
▁spl it</w>
▁inf ection</w>
▁helicop ter</w>
▁entreprene urs</w>
▁def ects</w>
▁cont ext</w>
▁V eter
▁Super intendent</w>
▁Nav y</w>
▁Eas tern</w>
u▁ sing</w>
ung er</w>
ser▁ ve</w>
sec ur
r▁es▁ ult</w>
ro▁ w</w>
reason able</w>
re form</w>
rai▁ se</w>
prepar ▁ed</w>
pers on▁al</w>
id en▁ce</w>
g▁ ame</w>
e u▁p</w>
cust o▁m
coun ting</w>
ce▁r tain</w>
bus y</w>
a▁t t▁
M r.</w>
A f▁f
▁transpar ent</w>
▁tr acking</w>
▁t a▁
▁s y
▁progres sive</w>
▁men us</w>
▁gl ob
▁d ess
▁c ar▁
▁bel ief</w>
▁S k
▁B uk
wa it</w>
vers eas</w>
t▁ alk</w>
so▁m e
form ance</w>
emb ly
el der▁ly</w>
crea ti▁on</w>
comp eti▁
at te▁nd</w>
J▁ in</w>
Div isi▁on</w>
Com pl▁ex</w>
C iv▁il</w>
A M</w>
8 6</w>
2▁ 00</w>
▁under go</w>
▁text books</w>
▁surv eys</w>
▁re verse</w>
▁pri zes</w>
▁p ays</w>
▁for ests</w>
▁comp uters</w>
▁cl ause</w>
▁borrow ed</w>
▁all ey</w>
▁P ress</w>
▁Baek je</w>
▁An n
us ter</w>
trea tment</w>
to▁ wn</w>
t our</w>
pro▁duc t▁s</w>
produc tion</w>
po▁p ular</w>
m eter</w>
inter▁ es▁ted</w>
h w▁a</w>
es it
er▁ n</w>
er r
ellig en▁ce</w>
cer ta▁in</w>
ber ry</w>
b out</w>
am ▁s</w>
Wh en</w>
Rus s▁ia</w>
J a▁n
C▁ omm
1▁ 5</w>
▁w ild
▁rem emb
▁relig ion</w>
▁reg eneration</w>
▁por tra
▁photograp hs</w>
▁p izza</w>
▁o the▁r</w>
▁mot or
▁k ey
▁hea vily</w>
▁co astal</w>
▁b e▁c
▁agre ements</w>
▁accur ately</w>
▁S t▁
▁G apyeong</w>
p▁er▁ iod</w>
pen ses</w>
pas ▁t</w>
i▁s s▁
iz er</w>
fur th▁er</w>
ey▁ es</w>
end ants</w>
emer▁ gency</w>
c▁om p▁
coll e▁ge</w>
as m</w>
C s</w>
9 5</w>
8 7</w>
# 9
▁up date</w>
▁tax is</w>
▁t elling</w>
▁rel ieve</w>
▁r arely</w>
▁prov isional</w>
▁pain ted</w>
▁lea k</w>
▁j in</w>
▁indic ating</w>
▁hon est</w>
▁gu ards</w>
▁faith fully</w>
▁dis ability</w>
▁contribu tions</w>
▁M ac
y ro
tr e▁ss</w>
s qu
po▁l ice</w>
op▁ le</w>
m▁ y
ind▁us try</w>
im ate</w>
h and▁ed</w>
gr▁ ow</w>
f oot</w>
e try</w>
d▁ is▁
den uclearization</w>
b ur▁
Gang w▁on</w>
▁st ation
▁sl owing</w>
▁reb ound</w>
▁r ough</w>
▁oper ational</w>
▁mois ture</w>
▁k ill</w>
▁eas tern</w>
▁cri tics</w>
▁after math</w>
▁Sy dney</w>
▁S iheung</w>
▁M unicipal</w>
▁L os</w>
▁K aesong</w>
▁H aving</w>
▁Ch amber</w>
y cles</w>
wi▁th o▁ut</w>
wh▁ y</w>
ul ent</w>
st o▁ck</w>
respon sib▁
res earch</w>
reduc ti▁on</w>
re fo▁rm</w>
p▁os e</w>
op pos
man a▁g
f a▁r</w>
ew ay</w>
est ab▁
bi▁ g</w>
b etter</w>
al▁ ty</w>
al i▁ze</w>
SE AN</w>
Gyeongsang nam</w>
&ap▁os; r▁e</w>
&a p▁o▁s
▁v alley</w>
▁th in</w>
▁shor ter</w>
▁sc ri
▁reven ues</w>
▁rem ote</w>
▁oblig ation</w>
▁l ying</w>
▁concer ts</w>
▁ar ise</w>
▁P aulo</w>
▁M un</w>
▁L ifelong</w>
▁D okdo</w>
▁B esides</w>
▁7 00</w>
wor l▁d</w>
tur ned</w>
re▁su▁l ts</w>
pre v▁
lo an</w>
in e▁d</w>
im pr▁ov
ff ers</w>
ex po▁rt</w>
ess e▁d</w>
ec▁ k</w>
ecess or</w>
eal and</w>
d an</w>
d able</w>
cur▁ r
consid er▁ed</w>
bi▁ll ion</w>
N o</w>
▁jud iciary</w>
▁exam ined</w>
▁ex emplary</w>
▁be in▁g</w>
▁bas ement</w>
▁Se odaemun</w>
▁S an
▁Pal ace</w>
▁Chungch eongnam</w>
▁B ro
w ill
ten d</w>
s▁ing le</w>
st an
sh ing</w>
s eon</w>
p e▁r</w>
im▁ pro▁ve</w>
est a▁
d▁em a▁nd</w>
d a▁m
c▁ s</w>
b▁ ody</w>
Y eon</w>
T BC</w>
S▁ on</w>
M a▁y</w>
K i▁ng</w>
Elec tr
E stablish
D I</w>
▁w eigh
▁u tion</w>
▁tex ture</w>
▁st agn
▁rel ics</w>
▁reg ret
▁investig ative</w>
▁guarant ees</w>
▁foc uses</w>
▁entr us
▁di ab
▁d ried</w>
▁cy ber</w>
▁conduc ts</w>
▁M ark
▁H igh
un▁ d</w>
tif ied</w>
ta▁l k</w>
re▁ce ive</w>
pr▁o duc
o▁r ed</w>
ori▁g inal</w>
orig in▁al</w>
l im▁
intro du▁c
in j
in clu▁d
g am▁es</w>
ft op</w>
fin an▁cial</w>
f ath▁er</w>
ee▁ ded</w>
ch ase</w>
ann iversa▁ry</w>
Y i</w>
O▁ ff▁ice</w>
A R</w>
1▁ 1</w>
▁refr iger
▁pat ri
▁mission ary</w>
▁liber al</w>
▁em ission</w>
▁dispos able</w>
▁des c
▁deliber ated</w>
▁conven ed</w>
▁celebr ation</w>
▁M e</w>
▁Ad v
un k
ular ities</w>
t▁ ural</w>
to▁ ur</w>
sem iconduc
sch ools</w>
prescri b▁ed</w>
prac tic
of t▁en</w>
m▁ is
law m▁ak
l iter
k▁ yu</w>
i▁s try</w>
hist or
e▁ pt</w>
ep ts</w>
environ ment▁al</w>
electr▁ ic</w>
ed u▁c
d▁ on</w>
dom in
br an▁ch</w>
a▁t in▁g</w>
a▁n c▁e</w>
atis tical</w>
at o▁r</w>
announ ceme▁nt</w>
al y▁
ail ▁ed</w>
L ocal</w>
A m▁
▁wor ries</w>
▁suspec ts</w>
▁ret ail
▁rem od
▁peti tion
▁newsp apers</w>
▁lic en
▁gl ad</w>
▁c r▁
▁E X
▁C amp</w>
▁C O
ur c▁h</w>
t▁ uring</w>
tr▁ ip</w>
tec h▁n
scor ▁ed</w>
rec og▁n
pr is▁on</w>
o▁ ci
of▁f ic
iv▁ id
it o</w>
igh t▁s</w>
ig ation</w>
exp▁ ec▁te▁d</w>
es try</w>
emb▁ ers</w>
em et
do g</w>
dep▁ th</w>
c▁om ing</w>
co▁mp an▁y</w>
buil t</w>
at ever</w>
ar▁ ks</w>
ann o▁un▁
ag r▁
S ang
6 7</w>
▁u▁ p</w>
▁trav eled</w>
▁th inks</w>
▁qu it</w>
▁per petr
▁obser ve</w>
▁notic eable</w>
▁min i</w>
▁l uck</w>
▁div or
▁bec ▁
▁ar med</w>
▁abol ished</w>
▁V R</w>
▁T ime</w>
▁M u
▁Lt d</w>
under▁st a▁nd</w>
th e
techn olog
s▁ ea</w>
pur pose</w>
o▁ r▁
o▁ d
ool ▁s</w>
j u▁d
h ans
e▁st ate</w>
est▁ iv
d▁ irect</w>
cre d▁it</w>
cons▁ um
be▁ for▁e</w>
am ics</w>
acr o▁ss</w>
Ta i
Sep t▁
Pen insula</w>
P u▁
Indus ▁
G en▁
7 7</w>
▁voc ational</w>
▁tr ag
▁tou ching</w>
▁s a▁les</w>
▁s ang</w>
▁rob ots</w>
▁rem ark
▁publ ishing</w>
▁prov ed</w>
▁occup ied</w>
▁manufactur ed</w>
▁l ift</w>
▁in ser
▁execu ted</w>
▁commemor ate</w>
▁With out</w>
▁US A</w>
▁T omorrow</w>
▁I I</w>
▁D ae
▁20 21</w>
val uation</w>
s▁ ure</w>
stu▁d en▁ts</w>
st ro
some▁ thing</w>
sh o▁ws</w>
sever ▁al</w>
sch oo▁l</w>
r▁e p▁ort</w>
particip ate</w>
p a▁re</w>
ord i▁n
m▁ al</w>
me▁n ▁t</w>
i▁r l</w>
im p▁rov
h ospital</w>
es ity</w>
ea▁ l</w>
duc ted</w>
d am</w>
ce▁ pt</w>
b ook
ap p▁l
am ation</w>
acc ide▁nt</w>
J▁ap an</w>
Gyeon▁g gi</w>
Feder ati▁on</w>
F estiv▁al</w>
7 2</w>
▁sh ut</w>
▁serv es</w>
▁hy giene</w>
▁exam ining</w>
▁dro ve</w>
▁doub t</w>
▁acqu ire</w>
▁a t▁
▁Nam yangju</w>
▁Braz ilian</w>
zh ou</w>
u▁ r</w>
ul t▁s</w>
u ary</w>
t as
r▁e port</w>
res h
play ers</w>
pay ment</w>
organiz ations</w>
ol ine</w>
mos ▁t</w>
is i▁ng</w>
g▁r am</w>
f▁ i
f ees</w>
e▁ up</w>
e▁ ach</w>
en▁t ary</w>
di pl
d eal</w>
com ed</w>
b▁ ette▁r</w>
au▁ gh
S▁ chool</w>
Prov in▁cial</w>
I FA</w>
1 .5</w>
▁scre ened</w>
▁qu ota</w>
▁op posing</w>
▁occ urrence</w>
▁hos ting</w>
▁enthusi astic</w>
▁determ ination</w>
▁del eted</w>
▁acknowl edged</w>
▁M ob
▁M icro
▁C alifornia</w>
un i▁on</w>
s▁ ex</w>
st▁ ory</w>
si bl▁e</w>
pre p▁ar
pl▁ ace</w>
oth e▁rs</w>
on e▁s</w>
mod el</w>
jur is
ir▁ d</w>
in▁ s
inc▁rea se</w>
in e▁s</w>
h ar▁d</w>
fras tru▁c
es h
enti▁ re</w>
en ti▁ng</w>
d ire▁ct</w>
cl ass
c om</w>
busin esses</w>
administr atio▁n</w>
IC E</w>
Gw a▁ng
Don a▁ld</w>
&apo▁s ;
▁work places</w>
▁sti mul
▁rea ders</w>
▁pregn ancy</w>
▁over time</w>
▁l iver</w>
▁ju ice</w>
▁inf ected</w>
▁frequ ency</w>
▁def endant</w>
▁ar t
▁D al
wit▁h out</w>
web site</w>
s▁ ame</w>
s ely</w>
rev ol
pr▁o b▁lem</w>
prov inc▁e</w>
our▁ ce</w>
n▁ et</w>
n ae</w>
l im</w>
l ation</w>
hi▁gh est</w>
high▁ ly</w>
g▁ il</w>
e▁ lo▁
esti m
b▁ ur▁
an i▁es</w>
adv a▁n
Y ork</w>
M▁in▁ istry</w>
Hy▁ undai</w>
6 8</w>
▁z ero</w>
▁wareh ouse</w>
▁tran sition</w>
▁there fore</w>
▁st eering</w>
▁occup ation</w>
▁o cean</w>
▁n eu
▁fe ed
▁conf idential</w>
▁b ound</w>
▁am o▁ng</w>
▁advant ageous</w>
▁a h</w>
▁Re form</w>
▁G ender</w>
▁E th
▁Comm unication</w>
▁As ked</w>
w▁or ld</w>
w▁ n</w>
tu al▁ly</w>
sk ills</w>
s sive</w>
resp o▁n
pr a▁c
phy▁ sical</w>
ophis tic
oo d▁s</w>
lo▁ oking</w>
ligh ted</w>
i▁n v▁
is c
in▁ at▁ion</w>
includ ▁ed</w>
in ki▁ng</w>
i on▁
for eign</w>
conv e▁n
charac t▁er</w>
b▁e e▁n</w>
bus▁in es▁s</w>
ass aul
ai▁n ed</w>
Govern men▁t</w>
G erm
Found ati▁on</w>
En vir
E ast</w>
Co▁un cil</w>
▁ob taining</w>
▁har sh</w>
▁f ast
▁c uts</w>
▁Net flix</w>
▁Fl oor</w>
▁Cath olic</w>
un ▁e</w>
th▁ ly</w>
sp okes
rul ing</w>
re pr▁es
pro pos▁ed</w>
over ty</w>
o o▁t
m▁ ajor</w>
mak ▁es</w>
i▁ ke</w>
in ity</w>
il iti▁es</w>
id ate</w>
employ ed</w>
ec tious</w>
ci ences</w>
ch a▁ir
b in</w>
a▁ w</w>
as er</w>
T E</w>
201▁ 8</w>
12▁ th</w>
▁propor tional</w>
▁predic ts</w>
▁peac eful</w>
▁in t▁o</w>
▁exc eption</w>
▁ex posure</w>
▁en ro
▁disc overy</w>
▁Memor ial</w>
▁Exper ience</w>
▁5 4</w>
vis ion</w>
un ist</w>
t▁ ion▁s</w>
tig ious</w>
th e▁rn</w>
t om</w>
par ti
opport uni▁ty</w>
offic ▁er</w>
le▁ m</w>
l an▁
i▁n s</w>
in ema</w>
e els</w>
del eg
b ut
a▁n ks</w>
att ack</w>
ar▁ es</w>
am ount</w>
P▁ ar▁ty</w>
H e▁al
▁syn ergy</w>
▁sched ules</w>
▁s ight</w>
▁r ear</w>
▁men tion</w>
▁l ies</w>
▁inf ant</w>
▁excav ation</w>
▁coun cil
▁cap able</w>
▁Manch ester</w>
wr ong</w>
um ing</w>
tr▁ ation</w>
su▁ b▁
si▁ ons</w>
ser i▁es</w>
ro a▁d</w>
relation sh▁ip</w>
mov▁ ie</w>
m ir
impo▁r t
est e▁rn</w>
eb a▁ll</w>
des p
ch▁ ar▁ge</w>
canc▁ er</w>
b or▁
a▁c tual</w>
any▁ thing</w>
J ▁ung</w>
▁wind ows</w>
▁sea food</w>
▁pain ful</w>
▁o▁ r</w>
▁heal th
▁gen res</w>
▁flo ating</w>
▁d yn
▁abnorm al</w>
▁a fte▁r</w>
▁P a▁rty</w>
▁Or ig
▁Angel es</w>
▁5 1</w>
▁200 3</w>
v▁ iew</w>
vol u▁n
us hing</w>
t▁h rough</w>
t▁ est</w>
sc reen</w>
reg▁ ional</w>
rec▁ ently</w>
prof ess
p en▁
organiz ation</w>
ob iles</w>
no▁ un
n t</w>
lo▁ w</w>
form▁ ed</w>
d▁ et
cus▁ tom
co▁mp▁ any</w>
cent e▁rs</w>
c ow</w>
av ail
at eral</w>
ari at</w>
agre▁ ed</w>
Pyong ya▁ng</w>
P ea▁ce</w>
L▁ im</w>
8 9</w>
6 2</w>
▁war nings</w>
▁s and</w>
▁p ipe</w>
▁neglec ted</w>
▁k n▁
▁i ll</w>
▁M ake</w>
▁E v
▁D obong</w>
▁4 9</w>
v o▁
us ers</w>
ud▁ get</w>
tr▁ ol</w>
t ary</w>
s▁ u</w>
su▁p p▁ort</w>
s om▁
negoti ations</w>
m igr
m ates</w>
l eme▁nt</w>
in st▁
ick▁ ly</w>
foll▁ owing</w>
consecu ti▁ve</w>
bea u▁
a▁ ti
ar ▁ed</w>
ap▁ pl
all yu</w>
Y o▁
Febru a▁ry</w>
F ish
▁t ies</w>
▁sk ill</w>
▁rel easing</w>
▁r ing</w>
▁qu oted</w>
▁prot ests</w>
▁pack aging</w>
▁necess ity</w>
▁meas uring</w>
▁def eated</w>
▁calcul ating</w>
▁adop tion</w>
▁Cooper ation</w>
▁6 0s</w>
u▁l ar</w>
ul led</w>
there of</w>
t een</w>
sur g
seas o▁n</w>
por ary</w>
particip ati▁ng</w>
p u▁t</w>
o v</w>
mil▁ lio▁n</w>
l ack</w>
j o
it a</w>
im age</w>
herei▁n a▁ft▁er</w>
gen c▁y</w>
e▁t c</w>
e▁c ti▁on</w>
e▁ar ly</w>
ex clus
er a▁l</w>
cou▁ ldn</w>
ac tu▁al</w>
D r
D e▁c
&qu o▁t▁;</w>
▁vol ati
▁ren ov
▁mo▁n ey</w>
▁l aid</w>
▁dis tor
▁comm enc
▁c eiling</w>
▁bas ketball</w>
▁ad jus
▁a n▁
▁200 1</w>
us s</w>
s▁ el
st ation</w>
sh▁ ould</w>
perfor▁m ance</w>
menti on▁ed</w>
liv ▁es</w>
is▁ su
hear i▁ng</w>
gov▁ern ment</w>
ec ture</w>
dir▁ ec▁
conditi ons</w>
con ver
comm itte▁e</w>
c ol▁l
be zz
at oes</w>
ana▁l y
air y</w>
af ter▁n
Me▁ tro
C▁ on
▁w is
▁v oted</w>
▁there for</w>
▁low ering</w>
▁l augh</w>
▁l acking</w>
▁ex trac
▁cool ing</w>
▁commenc ement</w>
▁a f▁ter</w>
▁Nex en</w>
▁Hist ory</w>
▁G l
▁Fr anc
▁? ?</w>
▁4 0
▁ i
u▁n d
pres sion</w>
p as▁
organiz ation▁s</w>
onom o▁us</w>
l ibr
import ant</w>
for c▁ed</w>
f oot
e▁n ough</w>
ev ent
em▁ p
ea ge</w>
c▁l ass</w>
c▁h o
crea▁ t▁e</w>
al ong</w>
ac▁ ks</w>
Univer s▁ity</w>
▁wholes ale</w>
▁t ank</w>
▁prospec tive</w>
▁g inseng</w>
▁f eed</w>
▁do zens</w>
▁dis sem
▁d oll</w>
▁d ad</w>
▁caf es</w>
▁Tor onto</w>
▁G oseong</w>
▁An ti</w>
▁4 7</w>
ul▁ ty</w>
u tio▁n</w>
s▁ti tu
s▁ el▁
si onal</w>
s ud
re▁ f
or de▁r</w>
oo dle</w>
n ee▁ds</w>
mee▁ ting</w>
man▁ ag
ic▁ ies</w>
g roups</w>
fav or
e ive</w>
c▁r▁ea te</w>
c ue</w>
b a</w>
amp ions</w>
Un ited</w>
M F</w>
J a</w>
I ▁f</w>
F a▁ir</w>
Ch e▁
C ar
B y
19 ▁th</w>
▁tr ucks</w>
▁t ea▁m</w>
▁st uck</w>
▁reserv ed</w>
▁r ush</w>
▁med ic
▁mar itime</w>
▁lif ting</w>
▁ha bits</w>
▁dec ade</w>
▁commemor ative</w>
▁ch ap
▁arr ang
▁Isra el</w>
t▁ ain</w>
sho▁ w</w>
s en</w>
r▁ el▁
par en▁ts</w>
n ot
mov eme▁nt</w>
iz ▁es</w>
ip o</w>
ili ans</w>
h an▁ds</w>
exc▁h ange</w>
er ful</w>
end i▁ng</w>
d e▁nt</w>
c▁ alled</w>
ch an</w>
a▁nn ual</w>
a▁ pe</w>
ar ly</w>
an t▁ed</w>
H wang</w>
Gyeong sa▁ng</w>
Dec ember</w>
3▁ 00</w>
▁y ouths</w>
▁sever ely</w>
▁h ea▁d</w>
▁g olden</w>
▁dr astically</w>
▁dom inated</w>
▁conver ted</w>
▁cho osing</w>
▁W e
▁Ren ault</w>
▁K TX</w>
▁&ap▁os ▁
z o▁ne</w>
sh ow
r u▁l
pr▁ is
lo a▁ns</w>
it ement</w>
ie vers</w>
exp re▁ss
ev ▁e</w>
en joy
d▁ ly</w>
c our▁se</w>
a▁ w
arant ee</w>
an es</w>
ab l▁
Jap a▁n</w>
▁~ ~</w>
▁su its</w>
▁s eventh</w>
▁reti red</w>
▁res trict</w>
▁r ub
▁prom inent</w>
▁negoti ating</w>
▁in scri
▁f o▁c
▁f ederal</w>
▁dis inf
▁cultiv ation</w>
▁cro ps</w>
▁cong estion</w>
▁bo ats</w>
▁ab used</w>
▁S em
▁J akarta</w>
▁In side</w>
▁Chr ist</w>
▁Ch ul</w>
▁Ch ild</w>
▁Americ ans</w>
wi▁ n</w>
u▁n til</w>
u▁n ique</w>
um in
ti an</w>
sched ule</w>
res ta▁
reduc ▁ed</w>
p▁ o</w>
pa▁ in</w>
p ow
i▁c al</w>
i▁ bu▁
it e▁ms</w>
g ate</w>
est a▁b
ess i▁ng</w>
em en</w>
dis mis
curr▁ ently</w>
com for▁
ans i▁on</w>
adem ic</w>
ac ed</w>
T a▁
Corpor ati▁on</w>
▁y uan</w>
▁tend ency</w>
▁s port</w>
▁on going</w>
▁mer it</w>
▁liqu or</w>
▁instruc tions</w>
▁hom ework</w>
▁fl ows</w>
▁fish eries</w>
▁exten uating</w>
▁ev ▁
▁dec ades</w>
▁conven e</w>
▁car riers</w>
▁anticip ated</w>
▁abor tion</w>
▁Se▁ oul</w>
▁Par ents</w>
y esterday</w>
u▁ me</w>
t▁ al</w>
trav▁ el</w>
st▁ ar</w>
ru p▁
p▁ il</w>
publ ic
perform anc▁es</w>
o tive</w>
mo th▁er</w>
is ive</w>
inv esti▁g
ind▁ us▁
indus tri▁es</w>
id em
g ave</w>
c▁h il
c▁au▁ sed</w>
c▁ ri▁
c▁ en▁ter</w>
a▁ l▁
ain s▁t</w>
U r
Ma▁r ine</w>
Comm i▁ttee</w>
▁wor ldwide</w>
▁v ary</w>
▁tr ained</w>
▁sur plus</w>
▁s eller</w>
▁lod ging</w>
▁inv itation</w>
▁gr ammar</w>
▁en ding</w>
▁cover ing</w>
▁congl omerates</w>
▁b ike</w>
▁as ide</w>
▁a re▁
▁L u
z y</w>
w ed
ub erc
stud y</w>
soci e▁ty</w>
r▁ ise</w>
rel atio▁n
real ity</w>
prom ot▁ed</w>
ov▁ er▁n
our▁ s</w>
[...]
